unsigned char _content_drive_MyDrive_DPL_g_model_tflite[] = {
  0x1c, 0x00, 0x00, 0x00, 0x54, 0x46, 0x4c, 0x33, 0x14, 0x00, 0x20, 0x00,
  0x04, 0x00, 0x08, 0x00, 0x0c, 0x00, 0x10, 0x00, 0x14, 0x00, 0x00, 0x00,
  0x18, 0x00, 0x1c, 0x00, 0x14, 0x00, 0x00, 0x00, 0x03, 0x00, 0x00, 0x00,
  0x18, 0x00, 0x00, 0x00, 0x1c, 0x00, 0x00, 0x00, 0x28, 0x01, 0x00, 0x00,
  0x1c, 0x00, 0x00, 0x00, 0xd0, 0x00, 0x00, 0x00, 0x48, 0x00, 0x00, 0x00,
  0x01, 0x00, 0x00, 0x00, 0x54, 0x03, 0x00, 0x00, 0x01, 0x00, 0x00, 0x00,
  0x30, 0x01, 0x00, 0x00, 0x0c, 0x00, 0x00, 0x00, 0xe0, 0x1a, 0x00, 0x00,
  0xdc, 0x1a, 0x00, 0x00, 0x08, 0x0a, 0x00, 0x00, 0x78, 0x09, 0x00, 0x00,
  0x24, 0x05, 0x00, 0x00, 0xa0, 0x04, 0x00, 0x00, 0x0c, 0x04, 0x00, 0x00,
  0xc4, 0x03, 0x00, 0x00, 0xc0, 0x1a, 0x00, 0x00, 0xbc, 0x1a, 0x00, 0x00,
  0xb8, 0x1a, 0x00, 0x00, 0xbc, 0x00, 0x00, 0x00, 0x01, 0x00, 0x00, 0x00,
  0x10, 0x00, 0x00, 0x00, 0x00, 0x00, 0x0a, 0x00, 0x10, 0x00, 0x0c, 0x00,
  0x08, 0x00, 0x04, 0x00, 0x0a, 0x00, 0x00, 0x00, 0x0c, 0x00, 0x00, 0x00,
  0x1c, 0x00, 0x00, 0x00, 0x20, 0x00, 0x00, 0x00, 0x0f, 0x00, 0x00, 0x00,
  0x73, 0x65, 0x72, 0x76, 0x69, 0x6e, 0x67, 0x5f, 0x64, 0x65, 0x66, 0x61,
  0x75, 0x6c, 0x74, 0x00, 0x01, 0x00, 0x00, 0x00, 0x14, 0x00, 0x00, 0x00,
  0x01, 0x00, 0x00, 0x00, 0x24, 0x00, 0x00, 0x00, 0x08, 0x00, 0x0c, 0x00,
  0x08, 0x00, 0x04, 0x00, 0x08, 0x00, 0x00, 0x00, 0x09, 0x00, 0x00, 0x00,
  0x04, 0x00, 0x00, 0x00, 0x07, 0x00, 0x00, 0x00, 0x64, 0x65, 0x6e, 0x73,
  0x65, 0x5f, 0x39, 0x00, 0x8e, 0xf6, 0xff, 0xff, 0x04, 0x00, 0x00, 0x00,
  0x0d, 0x00, 0x00, 0x00, 0x64, 0x65, 0x6e, 0x73, 0x65, 0x5f, 0x37, 0x5f,
  0x69, 0x6e, 0x70, 0x75, 0x74, 0x00, 0x00, 0x00, 0x01, 0x00, 0x00, 0x00,
  0x0c, 0x00, 0x00, 0x00, 0x08, 0x00, 0x0c, 0x00, 0x04, 0x00, 0x08, 0x00,
  0x08, 0x00, 0x00, 0x00, 0x08, 0x00, 0x00, 0x00, 0x0b, 0x00, 0x00, 0x00,
  0x13, 0x00, 0x00, 0x00, 0x6d, 0x69, 0x6e, 0x5f, 0x72, 0x75, 0x6e, 0x74,
  0x69, 0x6d, 0x65, 0x5f, 0x76, 0x65, 0x72, 0x73, 0x69, 0x6f, 0x6e, 0x00,
  0xde, 0xf6, 0xff, 0xff, 0x04, 0x00, 0x00, 0x00, 0x10, 0x00, 0x00, 0x00,
  0x31, 0x2e, 0x35, 0x2e, 0x30, 0x00, 0x00, 0x00, 0x00, 0x00, 0x00, 0x00,
  0x00, 0x00, 0x00, 0x00, 0x0f, 0x00, 0x00, 0x00, 0x4d, 0x4c, 0x49, 0x52,
  0x20, 0x43, 0x6f, 0x6e, 0x76, 0x65, 0x72, 0x74, 0x65, 0x64, 0x2e, 0x00,
  0x00, 0x00, 0x0e, 0x00, 0x18, 0x00, 0x04, 0x00, 0x08, 0x00, 0x0c, 0x00,
  0x10, 0x00, 0x14, 0x00, 0x0e, 0x00, 0x00, 0x00, 0x14, 0x00, 0x00, 0x00,
  0x3c, 0x00, 0x00, 0x00, 0x40, 0x00, 0x00, 0x00, 0x44, 0x00, 0x00, 0x00,
  0x50, 0x00, 0x00, 0x00, 0x0a, 0x00, 0x00, 0x00, 0x40, 0x19, 0x00, 0x00,
  0xe4, 0x18, 0x00, 0x00, 0x84, 0x08, 0x00, 0x00, 0xf0, 0x07, 0x00, 0x00,
  0xac, 0x03, 0x00, 0x00, 0x18, 0x03, 0x00, 0x00, 0x94, 0x02, 0x00, 0x00,
  0xf4, 0x01, 0x00, 0x00, 0xfc, 0x00, 0x00, 0x00, 0x60, 0x00, 0x00, 0x00,
  0x01, 0x00, 0x00, 0x00, 0x00, 0x00, 0x00, 0x00, 0x01, 0x00, 0x00, 0x00,
  0x09, 0x00, 0x00, 0x00, 0x03, 0x00, 0x00, 0x00, 0x7c, 0x01, 0x00, 0x00,
  0xa8, 0x00, 0x00, 0x00, 0x10, 0x00, 0x00, 0x00, 0x04, 0x00, 0x00, 0x00,
  0x6d, 0x61, 0x69, 0x6e, 0x00, 0x00, 0x00, 0x00, 0x7a, 0xff, 0xff, 0xff,
  0x00, 0x00, 0x00, 0x08, 0x18, 0x00, 0x00, 0x00, 0x0c, 0x00, 0x00, 0x00,
  0x04, 0x00, 0x00, 0x00, 0xd0, 0xe6, 0xff, 0xff, 0x01, 0x00, 0x00, 0x00,
  0x09, 0x00, 0x00, 0x00, 0x03, 0x00, 0x00, 0x00, 0x08, 0x00, 0x00, 0x00,
  0x05, 0x00, 0x00, 0x00, 0x06, 0x00, 0x00, 0x00, 0x58, 0xe7, 0xff, 0xff,
  0x14, 0x00, 0x00, 0x00, 0x0a, 0x00, 0x00, 0x00, 0x18, 0x00, 0x00, 0x00,
  0x40, 0x00, 0x00, 0x00, 0x30, 0x00, 0x00, 0x00, 0x02, 0x00, 0x00, 0x00,
  0x01, 0x00, 0x00, 0x00, 0x01, 0x00, 0x00, 0x00, 0x19, 0x00, 0x00, 0x00,
  0x53, 0x74, 0x61, 0x74, 0x65, 0x66, 0x75, 0x6c, 0x50, 0x61, 0x72, 0x74,
  0x69, 0x74, 0x69, 0x6f, 0x6e, 0x65, 0x64, 0x43, 0x61, 0x6c, 0x6c, 0x3a,
  0x30, 0x00, 0x00, 0x00, 0x02, 0x00, 0x00, 0x00, 0xff, 0xff, 0xff, 0xff,
  0x01, 0x00, 0x00, 0x00, 0x18, 0xf8, 0xff, 0xff, 0x00, 0x00, 0x0e, 0x00,
  0x14, 0x00, 0x00, 0x00, 0x08, 0x00, 0x0c, 0x00, 0x07, 0x00, 0x10, 0x00,
  0x0e, 0x00, 0x00, 0x00, 0x00, 0x00, 0x00, 0x08, 0x1c, 0x00, 0x00, 0x00,
  0x10, 0x00, 0x00, 0x00, 0x04, 0x00, 0x00, 0x00, 0x2e, 0xff, 0xff, 0xff,
  0x00, 0x00, 0x00, 0x01, 0x01, 0x00, 0x00, 0x00, 0x08, 0x00, 0x00, 0x00,
  0x03, 0x00, 0x00, 0x00, 0x07, 0x00, 0x00, 0x00, 0x03, 0x00, 0x00, 0x00,
  0x04, 0x00, 0x00, 0x00, 0xf0, 0xe7, 0xff, 0xff, 0x14, 0x00, 0x00, 0x00,
  0x09, 0x00, 0x00, 0x00, 0x18, 0x00, 0x00, 0x00, 0x78, 0x00, 0x00, 0x00,
  0x68, 0x00, 0x00, 0x00, 0x02, 0x00, 0x00, 0x00, 0x01, 0x00, 0x00, 0x00,
  0x10, 0x00, 0x00, 0x00, 0x52, 0x00, 0x00, 0x00, 0x73, 0x65, 0x71, 0x75,
  0x65, 0x6e, 0x74, 0x69, 0x61, 0x6c, 0x5f, 0x33, 0x2f, 0x64, 0x65, 0x6e,
  0x73, 0x65, 0x5f, 0x38, 0x2f, 0x4d, 0x61, 0x74, 0x4d, 0x75, 0x6c, 0x3b,
  0x73, 0x65, 0x71, 0x75, 0x65, 0x6e, 0x74, 0x69, 0x61, 0x6c, 0x5f, 0x33,
  0x2f, 0x64, 0x65, 0x6e, 0x73, 0x65, 0x5f, 0x38, 0x2f, 0x52, 0x65, 0x6c,
  0x75, 0x3b, 0x73, 0x65, 0x71, 0x75, 0x65, 0x6e, 0x74, 0x69, 0x61, 0x6c,
  0x5f, 0x33, 0x2f, 0x64, 0x65, 0x6e, 0x73, 0x65, 0x5f, 0x38, 0x2f, 0x42,
  0x69, 0x61, 0x73, 0x41, 0x64, 0x64, 0x00, 0x00, 0x02, 0x00, 0x00, 0x00,
  0xff, 0xff, 0xff, 0xff, 0x10, 0x00, 0x00, 0x00, 0xe8, 0xf8, 0xff, 0xff,
  0x00, 0x00, 0x0e, 0x00, 0x16, 0x00, 0x00, 0x00, 0x08, 0x00, 0x0c, 0x00,
  0x07, 0x00, 0x10, 0x00, 0x0e, 0x00, 0x00, 0x00, 0x00, 0x00, 0x00, 0x08,
  0x24, 0x00, 0x00, 0x00, 0x18, 0x00, 0x00, 0x00, 0x0c, 0x00, 0x00, 0x00,
  0x00, 0x00, 0x06, 0x00, 0x08, 0x00, 0x07, 0x00, 0x06, 0x00, 0x00, 0x00,
  0x00, 0x00, 0x00, 0x01, 0x01, 0x00, 0x00, 0x00, 0x07, 0x00, 0x00, 0x00,
  0x03, 0x00, 0x00, 0x00, 0x00, 0x00, 0x00, 0x00, 0x01, 0x00, 0x00, 0x00,
  0x02, 0x00, 0x00, 0x00, 0x0c, 0x00, 0x10, 0x00, 0x0b, 0x00, 0x00, 0x00,
  0x0c, 0x00, 0x04, 0x00, 0x0c, 0x00, 0x00, 0x00, 0x09, 0x00, 0x00, 0x00,
  0x00, 0x00, 0x00, 0x09, 0x01, 0x00, 0x00, 0x00, 0xe4, 0xe8, 0xff, 0xff,
  0x14, 0x00, 0x00, 0x00, 0x08, 0x00, 0x00, 0x00, 0x18, 0x00, 0x00, 0x00,
  0x78, 0x00, 0x00, 0x00, 0x68, 0x00, 0x00, 0x00, 0x02, 0x00, 0x00, 0x00,
  0x01, 0x00, 0x00, 0x00, 0x10, 0x00, 0x00, 0x00, 0x52, 0x00, 0x00, 0x00,
  0x73, 0x65, 0x71, 0x75, 0x65, 0x6e, 0x74, 0x69, 0x61, 0x6c, 0x5f, 0x33,
  0x2f, 0x64, 0x65, 0x6e, 0x73, 0x65, 0x5f, 0x37, 0x2f, 0x4d, 0x61, 0x74,
  0x4d, 0x75, 0x6c, 0x3b, 0x73, 0x65, 0x71, 0x75, 0x65, 0x6e, 0x74, 0x69,
  0x61, 0x6c, 0x5f, 0x33, 0x2f, 0x64, 0x65, 0x6e, 0x73, 0x65, 0x5f, 0x37,
  0x2f, 0x52, 0x65, 0x6c, 0x75, 0x3b, 0x73, 0x65, 0x71, 0x75, 0x65, 0x6e,
  0x74, 0x69, 0x61, 0x6c, 0x5f, 0x33, 0x2f, 0x64, 0x65, 0x6e, 0x73, 0x65,
  0x5f, 0x37, 0x2f, 0x42, 0x69, 0x61, 0x73, 0x41, 0x64, 0x64, 0x00, 0x00,
  0x02, 0x00, 0x00, 0x00, 0xff, 0xff, 0xff, 0xff, 0x10, 0x00, 0x00, 0x00,
  0x00, 0xe9, 0xff, 0xff, 0xd6, 0xf9, 0xff, 0xff, 0x04, 0x00, 0x00, 0x00,
  0x04, 0x00, 0x00, 0x00, 0xae, 0xca, 0x3c, 0x3c, 0xd2, 0xe9, 0xff, 0xff,
  0x10, 0x00, 0x00, 0x00, 0x07, 0x00, 0x00, 0x00, 0x10, 0x00, 0x00, 0x00,
  0x20, 0x00, 0x00, 0x00, 0x01, 0x00, 0x00, 0x00, 0x01, 0x00, 0x00, 0x00,
  0x0c, 0x00, 0x00, 0x00, 0x64, 0x65, 0x6e, 0x73, 0x65, 0x5f, 0x39, 0x2f,
  0x62, 0x69, 0x61, 0x73, 0x00, 0x00, 0x00, 0x00, 0x44, 0xe9, 0xff, 0xff,
  0x1a, 0xfa, 0xff, 0xff, 0x04, 0x00, 0x00, 0x00, 0x40, 0x00, 0x00, 0x00,
  0x2e, 0xd4, 0x8e, 0x3e, 0xa4, 0xa8, 0xd9, 0xbe, 0x9f, 0xce, 0x04, 0xbf,
  0xb1, 0x6e, 0xaf, 0xbe, 0xf7, 0xd3, 0xa0, 0x3e, 0xd9, 0xe6, 0x66, 0x3e,
  0x43, 0x03, 0xfc, 0xbd, 0x78, 0xd6, 0x2b, 0x39, 0x80, 0x53, 0xfd, 0xbe,
  0xa9, 0x1e, 0x58, 0xbe, 0xd1, 0x44, 0x92, 0x3e, 0xc5, 0x9e, 0xd6, 0xbe,
  0xdc, 0x12, 0x8d, 0xbe, 0xca, 0x1d, 0x05, 0x3e, 0x5f, 0x3f, 0x30, 0x3e,
  0xf6, 0x95, 0xb3, 0xbe, 0x52, 0xea, 0xff, 0xff, 0x10, 0x00, 0x00, 0x00,
  0x06, 0x00, 0x00, 0x00, 0x14, 0x00, 0x00, 0x00, 0x30, 0x00, 0x00, 0x00,
  0x02, 0x00, 0x00, 0x00, 0x01, 0x00, 0x00, 0x00, 0x10, 0x00, 0x00, 0x00,
  0x1b, 0x00, 0x00, 0x00, 0x73, 0x65, 0x71, 0x75, 0x65, 0x6e, 0x74, 0x69,
  0x61, 0x6c, 0x5f, 0x33, 0x2f, 0x64, 0x65, 0x6e, 0x73, 0x65, 0x5f, 0x39,
  0x2f, 0x4d, 0x61, 0x74, 0x4d, 0x75, 0x6c, 0x00, 0xd4, 0xe9, 0xff, 0xff,
  0xaa, 0xfa, 0xff, 0xff, 0x04, 0x00, 0x00, 0x00, 0x40, 0x00, 0x00, 0x00,
  0x00, 0x00, 0x00, 0x00, 0x00, 0x00, 0x00, 0x00, 0x00, 0x00, 0x00, 0x00,
  0xcc, 0xa9, 0x04, 0xbd, 0x91, 0xa7, 0x8f, 0x3d, 0xc5, 0x07, 0xa7, 0x3b,
  0xab, 0xca, 0xbf, 0xbb, 0xe9, 0x26, 0x74, 0xbc, 0x70, 0x3e, 0x5a, 0xbc,
  0xe6, 0x13, 0xba, 0xba, 0x9c, 0x3c, 0x45, 0xbc, 0x40, 0x31, 0xa2, 0x3b,
  0x4a, 0x9d, 0xaa, 0xbc, 0x1b, 0xc4, 0x7e, 0xbc, 0xc5, 0x7b, 0x08, 0x3c,
  0x68, 0xa2, 0x34, 0xbc, 0xe2, 0xea, 0xff, 0xff, 0x10, 0x00, 0x00, 0x00,
  0x05, 0x00, 0x00, 0x00, 0x10, 0x00, 0x00, 0x00, 0x20, 0x00, 0x00, 0x00,
  0x01, 0x00, 0x00, 0x00, 0x10, 0x00, 0x00, 0x00, 0x0c, 0x00, 0x00, 0x00,
  0x64, 0x65, 0x6e, 0x73, 0x65, 0x5f, 0x38, 0x2f, 0x62, 0x69, 0x61, 0x73,
  0x00, 0x00, 0x00, 0x00, 0x54, 0xea, 0xff, 0xff, 0x2a, 0xfb, 0xff, 0xff,
  0x04, 0x00, 0x00, 0x00, 0x00, 0x04, 0x00, 0x00, 0x87, 0xb7, 0x69, 0xbe,
  0xc0, 0xf1, 0x57, 0xbd, 0xc0, 0x46, 0xbf, 0xbb, 0xe8, 0xe0, 0x81, 0xbe,
  0x20, 0x8e, 0x78, 0x3d, 0x6f, 0xbc, 0x92, 0x3e, 0x5c, 0x40, 0x5d, 0xbe,
  0x90, 0x92, 0x82, 0xbe, 0xb0, 0xf5, 0xaa, 0xbe, 0x78, 0xd4, 0xce, 0xbd,
  0x40, 0x57, 0x10, 0x3d, 0x60, 0x71, 0x81, 0x3c, 0x80, 0xff, 0x10, 0x3b,
  0xe8, 0xfa, 0xa3, 0xbd, 0x40, 0x60, 0xc5, 0xbd, 0xb4, 0x7a, 0x0c, 0xbe,
  0x8d, 0xa8, 0x67, 0xbe, 0x42, 0xeb, 0x89, 0xbe, 0x11, 0x4c, 0x9d, 0x3e,
  0x15, 0x09, 0x80, 0x3e, 0x82, 0xc7, 0x23, 0xbe, 0xe1, 0xeb, 0xdb, 0xbe,
  0x07, 0x32, 0xc5, 0xbe, 0x2b, 0x52, 0xc8, 0xbe, 0x46, 0x06, 0x51, 0xbe,
  0x16, 0x58, 0xd9, 0xbe, 0xa5, 0x72, 0xc0, 0x3e, 0xe4, 0x7e, 0x9f, 0x3d,
  0x86, 0x81, 0x58, 0x3e, 0xeb, 0x6b, 0xd0, 0xbe, 0x66, 0x92, 0xd2, 0xbe,
  0x3c, 0xfe, 0xb0, 0xbd, 0x00, 0x18, 0x4e, 0x3b, 0x86, 0x99, 0x69, 0x3e,
  0x12, 0x78, 0x20, 0x3e, 0x81, 0x74, 0xd1, 0xbe, 0x04, 0xd5, 0xf1, 0xbd,
  0x80, 0xf4, 0x84, 0xbc, 0xc4, 0x98, 0x95, 0xbe, 0x20, 0xf1, 0x29, 0x3d,
  0x10, 0xe0, 0xa4, 0xbe, 0x29, 0x6b, 0x5f, 0xbe, 0xc4, 0xcf, 0x5a, 0xbe,
  0x3d, 0x7d, 0xb0, 0x3e, 0x09, 0xcb, 0x90, 0x3e, 0x4f, 0xb8, 0x70, 0xbe,
  0xf4, 0xef, 0x98, 0xbe, 0x80, 0x7b, 0x02, 0x3c, 0xfa, 0x93, 0x72, 0x3e,
  0x70, 0x77, 0xb9, 0xbc, 0x86, 0xe7, 0x8e, 0xbe, 0x44, 0x1c, 0x03, 0xbe,
  0x76, 0x25, 0x97, 0x3d, 0xac, 0x9a, 0x83, 0xbe, 0xfc, 0x3e, 0x4d, 0x3e,
  0x7f, 0x76, 0xda, 0x3e, 0x49, 0x48, 0xaf, 0x3c, 0x6a, 0xd8, 0x75, 0x3e,
  0x76, 0x98, 0x0a, 0x3e, 0x8a, 0x25, 0xa6, 0xbe, 0x21, 0x46, 0x86, 0xbc,
  0xe9, 0x9f, 0x10, 0x3e, 0xc5, 0xf6, 0xe0, 0xbe, 0x59, 0x80, 0xcf, 0xbe,
  0x44, 0xde, 0xce, 0xbc, 0xa1, 0x84, 0x6f, 0xbe, 0x30, 0xc8, 0xda, 0xbe,
  0xd1, 0x60, 0xd9, 0xbe, 0xff, 0x34, 0x0e, 0xbe, 0x52, 0x63, 0xde, 0xbd,
  0xd3, 0xe2, 0xd8, 0x3d, 0x1c, 0x08, 0xd9, 0x3e, 0xd7, 0xc7, 0xad, 0x3e,
  0x7f, 0xde, 0xac, 0xbe, 0x55, 0xa7, 0x91, 0x3e, 0x82, 0xc8, 0x9a, 0x3e,
  0xac, 0x40, 0xa7, 0xbe, 0x57, 0x1c, 0x83, 0x3e, 0xc4, 0x5b, 0xd5, 0x3d,
  0xc7, 0x00, 0xd1, 0xbe, 0xb4, 0xae, 0x86, 0x3e, 0xd0, 0xd1, 0x27, 0xbe,
  0x48, 0x0a, 0x47, 0xbe, 0xdd, 0x1e, 0x9d, 0x3e, 0x5c, 0xd8, 0x68, 0x3e,
  0xde, 0xc1, 0xbf, 0x3c, 0xca, 0xe0, 0xad, 0x3e, 0xf1, 0xd6, 0xcc, 0xbe,
  0x9e, 0x65, 0xdd, 0xbe, 0xce, 0x7f, 0x81, 0x3e, 0x80, 0xec, 0x00, 0xbe,
  0xce, 0x4a, 0x99, 0x3e, 0xe2, 0x9d, 0x36, 0xbd, 0xb1, 0x97, 0xf5, 0xbd,
  0x8f, 0x6c, 0xa6, 0x3e, 0xdb, 0xdb, 0xa0, 0x3e, 0x0e, 0x4b, 0x20, 0xbe,
  0xe1, 0x16, 0x9b, 0x3e, 0x5e, 0x76, 0xbe, 0xbe, 0x45, 0xa4, 0xaf, 0x3e,
  0x48, 0xad, 0x5c, 0x3e, 0x83, 0xaa, 0xd7, 0x3e, 0x2c, 0xe2, 0xb2, 0xbe,
  0xd6, 0x69, 0x9d, 0x3e, 0x3b, 0xd3, 0x10, 0xbe, 0xbc, 0xa7, 0x81, 0xbc,
  0x2a, 0x21, 0x48, 0x3e, 0x0b, 0x92, 0x21, 0x3e, 0xe1, 0x4a, 0x21, 0x3c,
  0x1a, 0xb1, 0x03, 0xbb, 0x07, 0x91, 0x32, 0xbe, 0xb9, 0x0a, 0xdb, 0xbe,
  0xf9, 0xcf, 0x96, 0x3d, 0x30, 0x61, 0x98, 0xbd, 0xa0, 0xf8, 0x14, 0xbd,
  0x58, 0xbf, 0xc1, 0xbe, 0xcb, 0x5d, 0xa5, 0xbd, 0x68, 0x7d, 0x81, 0xbd,
  0xba, 0xa7, 0x24, 0x3e, 0xc4, 0x10, 0xb9, 0xbe, 0x96, 0xb5, 0xab, 0xbd,
  0xae, 0x9e, 0x83, 0xbe, 0xcc, 0x18, 0xed, 0xbd, 0x69, 0x5a, 0x72, 0xbd,
  0x05, 0x91, 0xa1, 0x3e, 0x23, 0x52, 0x0d, 0xbe, 0x16, 0xce, 0xd5, 0x3e,
  0x72, 0xb7, 0xbb, 0xbe, 0xed, 0xe7, 0x83, 0xbe, 0x26, 0x11, 0x82, 0xbe,
  0x8c, 0x77, 0x8f, 0x3d, 0xd0, 0x25, 0x87, 0xbe, 0xcf, 0xd1, 0x52, 0xbe,
  0xd3, 0x3c, 0x9e, 0xbc, 0x05, 0xc5, 0x6c, 0x3e, 0xd4, 0xe5, 0xb0, 0x3d,
  0xab, 0x43, 0x88, 0xbe, 0x92, 0x7d, 0x1d, 0x3e, 0xec, 0x46, 0xbc, 0x3d,
  0xaf, 0x31, 0x78, 0x3e, 0xd0, 0x2f, 0x85, 0x3e, 0x98, 0xa3, 0xad, 0xbe,
  0x24, 0x7c, 0x8f, 0xbd, 0x72, 0xae, 0x1a, 0xbe, 0xf4, 0x6d, 0xc5, 0x3e,
  0xd0, 0x12, 0x48, 0xbd, 0xd3, 0x78, 0xcf, 0xbe, 0xb8, 0xc9, 0x93, 0x3d,
  0xf8, 0x84, 0xb6, 0x3e, 0x50, 0x87, 0x2e, 0x3d, 0x85, 0xc6, 0x8a, 0x3e,
  0xf5, 0x77, 0x96, 0xbe, 0x8d, 0xcc, 0x8b, 0xbe, 0x11, 0x38, 0x9a, 0x3c,
  0xe4, 0x14, 0xd9, 0x3d, 0x99, 0xcb, 0x5b, 0x3c, 0x68, 0x27, 0x2e, 0x3e,
  0x41, 0x6e, 0xb6, 0x3c, 0xc1, 0x7b, 0x1c, 0x3e, 0x31, 0x03, 0x99, 0xbe,
  0x74, 0xe8, 0x43, 0xbc, 0x30, 0x19, 0x76, 0x3d, 0xfb, 0x0e, 0xa3, 0x3e,
  0x39, 0x92, 0x67, 0xbd, 0x28, 0x9f, 0x51, 0x3e, 0x21, 0xbf, 0x43, 0x3c,
  0xe3, 0x02, 0x64, 0xbe, 0x84, 0x9e, 0x17, 0xbe, 0xbb, 0xac, 0x83, 0x3d,
  0x7a, 0x24, 0x6b, 0xbe, 0x64, 0x3c, 0xe3, 0x3d, 0xe4, 0x7d, 0x1c, 0x3e,
  0xc9, 0xa1, 0xf1, 0x3d, 0xd1, 0x45, 0xa0, 0xbe, 0xd8, 0x5d, 0x94, 0xbd,
  0x1a, 0xbf, 0x59, 0x3e, 0xbe, 0x6b, 0x43, 0x3d, 0xe8, 0x52, 0x44, 0x3d,
  0x65, 0xff, 0xa0, 0xbe, 0x76, 0x51, 0x38, 0xbe, 0x07, 0xa2, 0xbf, 0x3e,
  0x83, 0xf0, 0x80, 0xbb, 0xbd, 0x02, 0x38, 0x3e, 0xa6, 0x91, 0x21, 0xbe,
  0xc9, 0x2a, 0x7e, 0xbe, 0xb9, 0xad, 0x57, 0x3e, 0xba, 0xb2, 0x71, 0x3e,
  0x52, 0xd4, 0xc4, 0x3e, 0x8b, 0x73, 0x55, 0xbd, 0x79, 0x31, 0xb5, 0xbe,
  0xd2, 0xc0, 0xa2, 0x3e, 0x85, 0x92, 0x94, 0x3e, 0x6c, 0x54, 0xc0, 0xbe,
  0xa0, 0x3c, 0x72, 0xbd, 0x62, 0xb0, 0x28, 0xbe, 0x99, 0x25, 0x21, 0xbe,
  0xf7, 0x11, 0x85, 0x3d, 0xd2, 0x0b, 0xbd, 0x3e, 0x4d, 0x23, 0xb7, 0x3e,
  0x9f, 0x41, 0x89, 0xbd, 0xec, 0xde, 0x46, 0xbd, 0xb0, 0x96, 0xbc, 0x3e,
  0xf8, 0xa1, 0x56, 0xbd, 0x8d, 0x78, 0x6c, 0x3e, 0xe5, 0xbb, 0x92, 0xbe,
  0x55, 0x00, 0x04, 0x3e, 0x5e, 0x50, 0xe5, 0x3d, 0xc9, 0x11, 0xd9, 0x3c,
  0xf0, 0xa2, 0xc6, 0x3d, 0x6a, 0x8b, 0x18, 0xbe, 0x87, 0x98, 0xd6, 0x3e,
  0xa4, 0x5f, 0xb6, 0xbd, 0x25, 0xff, 0xa0, 0xbe, 0xbd, 0xf1, 0xab, 0x3e,
  0xe1, 0x61, 0xc0, 0xbd, 0xa3, 0xaa, 0x8b, 0xbe, 0x0f, 0x8d, 0x3e, 0xbe,
  0x80, 0x38, 0xa0, 0xbe, 0xea, 0x4d, 0x58, 0x3e, 0x64, 0xed, 0x09, 0x3e,
  0x76, 0x32, 0x98, 0x3e, 0x2f, 0x3b, 0x56, 0xbe, 0xe7, 0x24, 0x73, 0x3e,
  0x21, 0x23, 0xcd, 0xbc, 0xce, 0xba, 0x61, 0x3d, 0xe2, 0x1b, 0x32, 0xbe,
  0xec, 0xaa, 0xc4, 0xbd, 0xd4, 0xa6, 0x9e, 0x3e, 0x9c, 0xc6, 0xeb, 0x3e,
  0x43, 0x8f, 0xa9, 0xbd, 0xa5, 0xb5, 0xd5, 0xbe, 0xf6, 0x44, 0x83, 0x3e,
  0x4c, 0x5f, 0xc4, 0x3e, 0xc5, 0xcd, 0x81, 0x3e, 0x2d, 0x2e, 0xd0, 0xbe,
  0x36, 0x4f, 0xae, 0x3e, 0x4d, 0x6f, 0x25, 0x3e, 0x5e, 0xf3, 0xc4, 0xbe,
  0x11, 0xc4, 0x52, 0x3e, 0x7d, 0x2c, 0x0f, 0x3e, 0x1d, 0xd9, 0x42, 0xbe,
  0xfc, 0x51, 0xbf, 0xbe, 0x4e, 0x5c, 0xc6, 0xbe, 0x44, 0xc4, 0x7d, 0x3e,
  0x3d, 0x9c, 0x68, 0x3d, 0x1a, 0x06, 0x83, 0xbe, 0xc5, 0x8c, 0x3a, 0xbe,
  0x11, 0x96, 0xd9, 0x3d, 0x4d, 0x61, 0xb3, 0x3e, 0x6b, 0xec, 0xad, 0xbd,
  0xb0, 0x33, 0x64, 0x3d, 0x21, 0xe7, 0xa6, 0xbe, 0x2f, 0x5d, 0x78, 0xbd,
  0x5d, 0x31, 0xa2, 0xbd, 0x0c, 0xe8, 0xfd, 0x3d, 0xd2, 0x4a, 0x21, 0xbe,
  0x22, 0xef, 0xff, 0xff, 0x10, 0x00, 0x00, 0x00, 0x04, 0x00, 0x00, 0x00,
  0x14, 0x00, 0x00, 0x00, 0x30, 0x00, 0x00, 0x00, 0x02, 0x00, 0x00, 0x00,
  0x10, 0x00, 0x00, 0x00, 0x10, 0x00, 0x00, 0x00, 0x1b, 0x00, 0x00, 0x00,
  0x73, 0x65, 0x71, 0x75, 0x65, 0x6e, 0x74, 0x69, 0x61, 0x6c, 0x5f, 0x33,
  0x2f, 0x64, 0x65, 0x6e, 0x73, 0x65, 0x5f, 0x38, 0x2f, 0x4d, 0x61, 0x74,
  0x4d, 0x75, 0x6c, 0x00, 0xa4, 0xee, 0xff, 0xff, 0x7a, 0xff, 0xff, 0xff,
  0x04, 0x00, 0x00, 0x00, 0x40, 0x00, 0x00, 0x00, 0xaa, 0xbb, 0x94, 0xbc,
  0x00, 0x00, 0x00, 0x00, 0x00, 0x00, 0x00, 0x00, 0x7d, 0x1e, 0x68, 0xbd,
  0xbb, 0x10, 0xc1, 0xbc, 0xfd, 0xfd, 0x66, 0xbd, 0xeb, 0xa8, 0x81, 0xbb,
  0x62, 0xfa, 0x0d, 0xbc, 0xb8, 0x1d, 0x42, 0x3d, 0x20, 0xfe, 0xfb, 0xbb,
  0x00, 0x00, 0x00, 0x00, 0xac, 0x98, 0x9d, 0xbb, 0xe2, 0x6b, 0x2f, 0xbc,
  0xef, 0x24, 0xf0, 0x3b, 0x13, 0x78, 0x09, 0x3c, 0x1e, 0xa2, 0x8d, 0xbc,
  0xb2, 0xef, 0xff, 0xff, 0x10, 0x00, 0x00, 0x00, 0x03, 0x00, 0x00, 0x00,
  0x10, 0x00, 0x00, 0x00, 0x24, 0x00, 0x00, 0x00, 0x01, 0x00, 0x00, 0x00,
  0x10, 0x00, 0x00, 0x00, 0x0c, 0x00, 0x00, 0x00, 0x64, 0x65, 0x6e, 0x73,
  0x65, 0x5f, 0x37, 0x2f, 0x62, 0x69, 0x61, 0x73, 0x00, 0x00, 0x00, 0x00,
  0x04, 0x00, 0x06, 0x00, 0x04, 0x00, 0x00, 0x00, 0x00, 0x00, 0x06, 0x00,
  0x08, 0x00, 0x04, 0x00, 0x06, 0x00, 0x00, 0x00, 0x04, 0x00, 0x00, 0x00,
  0x00, 0x10, 0x00, 0x00, 0x5b, 0xf1, 0x1f, 0x3e, 0x63, 0x3d, 0x0f, 0xbe,
  0x3b, 0xe8, 0x72, 0x3e, 0x44, 0x57, 0x4e, 0xbd, 0x0c, 0x28, 0x4f, 0xbd,
  0xd8, 0x13, 0x15, 0x3e, 0x5d, 0x8d, 0x0f, 0xbe, 0x9d, 0x91, 0x10, 0x3e,
  0x94, 0xaa, 0x60, 0x3e, 0x75, 0xfa, 0x33, 0x3e, 0xe8, 0x81, 0x43, 0x3e,
  0xb9, 0x38, 0x8d, 0xbd, 0x07, 0xc0, 0x0a, 0x3b, 0xa3, 0xe4, 0x10, 0xbe,
  0x45, 0xce, 0x4f, 0xbe, 0x92, 0x6e, 0x36, 0xbd, 0x1e, 0x31, 0x00, 0x3e,
  0x10, 0x72, 0xc5, 0xbc, 0xdd, 0xbc, 0x6c, 0xbd, 0x3e, 0x18, 0x69, 0x3d,
  0x8e, 0xf0, 0x25, 0xbe, 0x8d, 0xdb, 0x1c, 0xbe, 0xd3, 0xf9, 0xd1, 0xbd,
  0x36, 0xb4, 0x85, 0xbe, 0xed, 0xc5, 0xc3, 0xbd, 0xde, 0xf0, 0xc8, 0x3d,
  0x1e, 0x80, 0x84, 0xbd, 0x67, 0xb8, 0x2c, 0xbe, 0x10, 0xf7, 0x81, 0x3c,
  0x54, 0xff, 0xf2, 0xbd, 0xd4, 0xe4, 0x74, 0x3e, 0x6c, 0xd9, 0x39, 0xbd,
  0xf4, 0xdc, 0x83, 0x3e, 0x26, 0xf4, 0x30, 0xbd, 0xe5, 0x52, 0x8a, 0x3d,
  0x2b, 0x26, 0x2a, 0xbe, 0x07, 0xae, 0x7b, 0xbe, 0x6b, 0x3c, 0x5f, 0xbe,
  0xea, 0x46, 0x80, 0xbe, 0x61, 0x22, 0x30, 0xbe, 0xda, 0x64, 0x17, 0xbe,
  0xe1, 0x9c, 0x2b, 0x3e, 0x4c, 0x34, 0x80, 0xbe, 0x60, 0xc9, 0x63, 0xbe,
  0x38, 0x90, 0x16, 0x3e, 0x17, 0xfc, 0x83, 0x3e, 0x01, 0xe3, 0x7d, 0x3e,
  0x14, 0x30, 0x46, 0xbd, 0xe5, 0x27, 0x11, 0xbe, 0xf8, 0x64, 0x7e, 0xbe,
  0x3b, 0xb3, 0x28, 0xbe, 0x78, 0xb3, 0x8a, 0xbe, 0xcf, 0x62, 0x06, 0x3e,
  0x16, 0x1e, 0x60, 0x3e, 0x32, 0x7b, 0x00, 0x3e, 0x04, 0x23, 0xd3, 0x3d,
  0xa9, 0x7f, 0x28, 0xbe, 0x94, 0x7f, 0x71, 0xbd, 0x87, 0x43, 0xc2, 0x3c,
  0xf0, 0x41, 0xdd, 0x3d, 0x05, 0x8c, 0x88, 0xbe, 0x63, 0xa1, 0xd6, 0x3d,
  0xd3, 0xc8, 0x18, 0xbe, 0xdb, 0x91, 0x5e, 0xbe, 0x80, 0x91, 0x96, 0x3d,
  0xed, 0xbe, 0x82, 0xbe, 0x00, 0x1b, 0xf0, 0xbb, 0x64, 0xaa, 0x76, 0xbe,
  0xe6, 0x7c, 0xe5, 0xbd, 0xf1, 0xdb, 0x50, 0xbe, 0x34, 0xa1, 0x1f, 0xbe,
  0xd4, 0x52, 0x75, 0xbe, 0x6c, 0xa8, 0x11, 0x3e, 0x8c, 0x7a, 0xb5, 0xbd,
  0xb8, 0xdc, 0x2a, 0xbd, 0x30, 0xb7, 0xf2, 0xbd, 0x61, 0x43, 0x86, 0xbe,
  0x5a, 0x57, 0x98, 0xbd, 0xc4, 0x5b, 0x1c, 0xbd, 0x72, 0xa1, 0x88, 0x3e,
  0x83, 0xdf, 0x53, 0xbe, 0x58, 0x62, 0x5d, 0x3e, 0xd0, 0x6c, 0x67, 0x3d,
  0x4e, 0x47, 0xd6, 0xbd, 0x71, 0x2e, 0x25, 0xbe, 0x8c, 0x5b, 0xe1, 0x3d,
  0x40, 0x4d, 0xe5, 0x3d, 0x48, 0xf4, 0x24, 0x3e, 0x90, 0xd2, 0x88, 0x3c,
  0x94, 0xec, 0xb9, 0x3d, 0x5e, 0xad, 0x11, 0x3e, 0x50, 0xd8, 0x67, 0xbd,
  0x00, 0x81, 0xd8, 0x3c, 0x98, 0xd5, 0x12, 0x3d, 0x2c, 0xc3, 0xd8, 0x3d,
  0xa0, 0x62, 0x9b, 0xbd, 0x64, 0x2a, 0x62, 0xbd, 0x0e, 0xe7, 0x88, 0xbe,
  0xb8, 0x4b, 0x2a, 0x3d, 0x60, 0xc0, 0x30, 0x3e, 0x1c, 0x98, 0x95, 0x3d,
  0x52, 0xd8, 0xfb, 0xbd, 0xfc, 0xe7, 0x01, 0xbe, 0x92, 0xdd, 0x82, 0xbe,
  0x60, 0xaf, 0x09, 0x3c, 0x70, 0x31, 0xa1, 0x3c, 0xf4, 0x21, 0x3a, 0xbd,
  0x9c, 0xe5, 0x18, 0x3e, 0x8c, 0x30, 0xd1, 0xbd, 0x6f, 0xbe, 0x7c, 0xbe,
  0x2c, 0x04, 0x6b, 0xbd, 0xb8, 0xc0, 0x83, 0xbd, 0x60, 0x8b, 0xb5, 0xbc,
  0x56, 0xc6, 0xc2, 0xbd, 0xb0, 0x9c, 0x10, 0x3e, 0x3a, 0x80, 0x5b, 0xbe,
  0x14, 0xc6, 0xd1, 0xbd, 0xb6, 0xcd, 0x7f, 0xbe, 0x88, 0x18, 0x30, 0xbe,
  0x84, 0xba, 0x04, 0xbd, 0x68, 0x10, 0xfb, 0xbd, 0x9e, 0xbf, 0x54, 0x3e,
  0x3a, 0x44, 0x58, 0xbe, 0xea, 0xb6, 0x03, 0xbe, 0x3c, 0xe2, 0xa1, 0xbd,
  0xae, 0x43, 0x08, 0xbe, 0x21, 0x34, 0x83, 0xbe, 0x7c, 0x0f, 0xb3, 0x3d,
  0xe0, 0x29, 0x04, 0x3c, 0x04, 0xc4, 0x18, 0xbd, 0x44, 0x0e, 0x5f, 0xbd,
  0xd0, 0x7a, 0x84, 0xbd, 0xc0, 0xe9, 0xe8, 0xbc, 0x14, 0x6c, 0x29, 0x3e,
  0xc2, 0x56, 0x03, 0x3e, 0x06, 0x3c, 0x28, 0xbe, 0xb2, 0xc2, 0xdd, 0xbd,
  0x12, 0x7b, 0x47, 0xbe, 0x70, 0x81, 0x5d, 0x3d, 0x38, 0x02, 0x1a, 0x3e,
  0x58, 0xe0, 0xd9, 0x3d, 0xf0, 0x10, 0x5f, 0xbe, 0x76, 0xf1, 0x73, 0xbe,
  0x00, 0x80, 0x6e, 0x3a, 0xf8, 0x8f, 0x45, 0xbe, 0x7c, 0x28, 0x2e, 0xbd,
  0x11, 0xf0, 0x85, 0xbe, 0xba, 0x9b, 0x64, 0x3e, 0x60, 0x0f, 0x8b, 0x3c,
  0xbe, 0x5f, 0x82, 0xbe, 0x85, 0x91, 0x65, 0xbe, 0x56, 0xad, 0x22, 0xbe,
  0x18, 0xc6, 0x3f, 0x3d, 0xcc, 0x76, 0x26, 0xbd, 0xb4, 0xc7, 0xf0, 0xbd,
  0xde, 0xd1, 0x89, 0x3e, 0xad, 0xd0, 0x48, 0xbe, 0x44, 0x5e, 0xaa, 0x3d,
  0x70, 0x9c, 0x41, 0x3d, 0x3f, 0x7a, 0x82, 0xbe, 0x60, 0xd5, 0x40, 0x3c,
  0x50, 0x20, 0x6c, 0xbd, 0x58, 0x84, 0x43, 0x3e, 0x04, 0xf4, 0x79, 0xbe,
  0x98, 0xac, 0x31, 0x3d, 0xb7, 0xb9, 0x49, 0xbe, 0x3c, 0xd2, 0x4d, 0xbd,
  0x88, 0x5a, 0x19, 0xbe, 0x88, 0xea, 0x67, 0xbd, 0x01, 0xca, 0x65, 0xbe,
  0xcc, 0x51, 0xa2, 0xbd, 0x20, 0x21, 0x4a, 0xbd, 0xf2, 0x88, 0xbb, 0xbd,
  0x30, 0x89, 0xf1, 0xbd, 0xe7, 0x3d, 0x18, 0xbe, 0x9c, 0xf9, 0xe5, 0x3d,
  0xdb, 0x8a, 0x12, 0xbe, 0x26, 0x18, 0x24, 0xbe, 0xf8, 0xe7, 0x0f, 0x3d,
  0xb4, 0xcb, 0x95, 0x3d, 0x60, 0x9c, 0x10, 0x3d, 0x0e, 0x64, 0x5d, 0x3e,
  0x04, 0xbc, 0xea, 0x3d, 0xac, 0x92, 0x8d, 0x3d, 0xa4, 0x37, 0x76, 0x3e,
  0xe0, 0xff, 0xe5, 0x3c, 0xcc, 0xe8, 0x28, 0x3e, 0x9b, 0x4a, 0x20, 0xbe,
  0xf4, 0x46, 0xd7, 0xbd, 0x90, 0xf8, 0x23, 0xbd, 0x16, 0x5d, 0x92, 0xbd,
  0xa8, 0xa8, 0xc7, 0x3d, 0x3a, 0x10, 0x8a, 0xbd, 0x4e, 0xce, 0x63, 0xbe,
  0x45, 0xe0, 0xca, 0x3d, 0x8b, 0x87, 0xd0, 0x3d, 0x6a, 0x01, 0x4c, 0x3e,
  0x85, 0x19, 0xf1, 0x3d, 0x1b, 0x6d, 0x54, 0x3e, 0x75, 0x60, 0x3d, 0xbe,
  0x21, 0x32, 0x4f, 0x3e, 0x57, 0xac, 0x35, 0x3e, 0xd9, 0x3e, 0x3b, 0x3e,
  0x33, 0x99, 0x60, 0x3e, 0xbb, 0xa6, 0x51, 0x3e, 0x26, 0x81, 0x68, 0x3e,
  0x2e, 0xdc, 0x34, 0x3e, 0x4b, 0x96, 0x25, 0xbe, 0xcf, 0xa6, 0x25, 0x3e,
  0xdc, 0x11, 0xd2, 0x3d, 0xcf, 0xa1, 0xdb, 0xbd, 0x20, 0xd0, 0x13, 0x3d,
  0x42, 0x8f, 0xd6, 0xbd, 0x68, 0xfd, 0x3f, 0xbe, 0x4f, 0x3f, 0x19, 0x3e,
  0xe7, 0x1d, 0xb2, 0xbd, 0x50, 0x92, 0x29, 0x3e, 0x66, 0xd2, 0x08, 0xbe,
  0x22, 0x2f, 0x3d, 0x3e, 0x76, 0xe7, 0x08, 0xbe, 0x62, 0x14, 0xdb, 0xbd,
  0x20, 0x49, 0x32, 0x3e, 0x98, 0x60, 0xfb, 0x3d, 0xb6, 0x12, 0xb7, 0x3d,
  0x3a, 0x4e, 0x08, 0x3e, 0x11, 0x9f, 0x1e, 0xbd, 0xa8, 0x50, 0x4b, 0xbd,
  0x9c, 0xc8, 0xb7, 0xbd, 0x1a, 0x3b, 0x9f, 0xbd, 0x9f, 0x25, 0x89, 0xbd,
  0xc9, 0x95, 0x45, 0x3e, 0xac, 0x2f, 0xe4, 0x3b, 0x92, 0x3c, 0x80, 0xbe,
  0x74, 0x30, 0x0f, 0x3e, 0x23, 0xbc, 0x3a, 0xbd, 0xcb, 0xe2, 0x7c, 0xbe,
  0x28, 0x48, 0x67, 0x3e, 0x5e, 0x78, 0xf8, 0xbd, 0xc7, 0xb3, 0x37, 0xbe,
  0x2b, 0x6e, 0x6c, 0xbe, 0xd4, 0xb9, 0x12, 0xbd, 0x5e, 0x40, 0x04, 0xbe,
  0x94, 0x72, 0x59, 0x3d, 0x83, 0xd4, 0x35, 0x3d, 0x95, 0x08, 0x30, 0xbe,
  0x45, 0xc5, 0x59, 0x3e, 0x66, 0x52, 0x70, 0xbe, 0x93, 0x68, 0x1f, 0xbe,
  0xbc, 0x92, 0x41, 0x3e, 0xcc, 0xc0, 0x3a, 0x3e, 0xe8, 0xdc, 0xd5, 0xbb,
  0x4e, 0xd8, 0x86, 0xbd, 0x24, 0xa5, 0x54, 0x3d, 0x86, 0x0a, 0x2f, 0x3e,
  0x88, 0x43, 0x7e, 0xbe, 0xf4, 0x4a, 0xb0, 0xbd, 0x1f, 0x33, 0x1e, 0x3d,
  0x58, 0xdf, 0x7e, 0x3e, 0x78, 0x2e, 0xba, 0x3d, 0x66, 0x11, 0xa6, 0xbb,
  0x97, 0x63, 0xce, 0xbd, 0xe0, 0xad, 0x58, 0xbe, 0x93, 0x3f, 0xe1, 0xbd,
  0xa8, 0x74, 0x4f, 0xbd, 0x04, 0x62, 0xaf, 0xbd, 0x97, 0x5b, 0x71, 0x3e,
  0x42, 0xe5, 0x83, 0x3e, 0x63, 0xef, 0x40, 0xbe, 0x59, 0xf7, 0x48, 0xbe,
  0xcf, 0x94, 0x3a, 0xbe, 0xfc, 0xfd, 0x0f, 0x3e, 0x05, 0xc5, 0x7b, 0x3e,
  0x04, 0x76, 0x64, 0xbe, 0x25, 0xc4, 0x80, 0xbe, 0x2b, 0xb0, 0x79, 0xbe,
  0x52, 0x00, 0x58, 0x3e, 0x6d, 0x8d, 0x1c, 0x3d, 0x71, 0x28, 0x79, 0xbe,
  0x53, 0x02, 0x25, 0xbe, 0xb4, 0xf2, 0x7d, 0xbd, 0x8b, 0x38, 0x2a, 0xbe,
  0x9c, 0x93, 0x5e, 0x3e, 0xfa, 0xda, 0x75, 0x3e, 0x09, 0xec, 0x99, 0xbd,
  0xc9, 0x2e, 0x30, 0xbe, 0xc4, 0x06, 0x2f, 0x3e, 0xd6, 0x34, 0x65, 0x3d,
  0x60, 0x35, 0x2f, 0x3e, 0x9b, 0x22, 0x19, 0xbe, 0x40, 0xf3, 0x93, 0xbd,
  0x8f, 0x78, 0xe1, 0x3c, 0x64, 0x78, 0x70, 0xbe, 0x7b, 0x19, 0x55, 0xbd,
  0x17, 0x31, 0xb2, 0xbd, 0x14, 0xd3, 0xbc, 0xbd, 0x1c, 0xfc, 0xf0, 0xbd,
  0xc3, 0x73, 0xce, 0x3d, 0xe3, 0x63, 0x5b, 0x3e, 0x01, 0x6f, 0x87, 0x3d,
  0xaf, 0xb9, 0x2c, 0xbd, 0x33, 0xcb, 0x2c, 0xbe, 0xa2, 0xf5, 0x39, 0xbe,
  0xd6, 0xa2, 0x97, 0x3d, 0x57, 0x6e, 0x25, 0x3d, 0x68, 0x12, 0x22, 0x3d,
  0x96, 0x3d, 0x06, 0xbe, 0x5d, 0x73, 0xd5, 0x3d, 0x9b, 0x5c, 0x67, 0xbe,
  0xb0, 0x88, 0x0e, 0xbe, 0x38, 0xdb, 0x1a, 0x3e, 0x88, 0x49, 0x51, 0x3e,
  0xc3, 0xc0, 0xc3, 0xbd, 0xd3, 0x71, 0xb0, 0x3d, 0x2a, 0x3b, 0x8f, 0x3d,
  0xa9, 0xc0, 0x8c, 0xbe, 0x14, 0xf1, 0x5b, 0xbe, 0x23, 0x6b, 0x4a, 0x3e,
  0x9b, 0x69, 0xec, 0x3d, 0xf8, 0x33, 0xe3, 0x3d, 0x8b, 0x48, 0x96, 0xbe,
  0x04, 0x42, 0x96, 0xbe, 0x3f, 0x50, 0xc0, 0x3d, 0x49, 0xc8, 0xd5, 0xbd,
  0xc2, 0x5c, 0xd1, 0xbc, 0xa3, 0xca, 0x92, 0xbe, 0x4a, 0xed, 0x30, 0x3e,
  0x06, 0x34, 0x09, 0x3d, 0x9a, 0xcc, 0x46, 0xbd, 0x85, 0x00, 0x38, 0x3e,
  0x80, 0x32, 0x3d, 0x3e, 0x58, 0x06, 0xe1, 0xbd, 0x88, 0xd8, 0x08, 0xbe,
  0x18, 0x52, 0x0e, 0x3d, 0xd0, 0x90, 0x60, 0xbd, 0xea, 0x81, 0xdc, 0x3d,
  0xd0, 0xc9, 0x65, 0x3e, 0xff, 0xaa, 0x3a, 0x3d, 0x88, 0x70, 0xb5, 0x3c,
  0x54, 0x5d, 0x09, 0x3e, 0xb4, 0x0f, 0x0e, 0x3d, 0x95, 0x11, 0x31, 0xbe,
  0xb1, 0x57, 0xb8, 0xbd, 0x7d, 0x03, 0x40, 0xbd, 0xee, 0xbe, 0x87, 0xbd,
  0xaa, 0x58, 0x84, 0xbe, 0xb2, 0xc0, 0x72, 0x3d, 0xab, 0x52, 0xe5, 0xbd,
  0xc5, 0xe6, 0xaa, 0xbc, 0x31, 0x97, 0x0b, 0xbd, 0x43, 0xe6, 0x77, 0xbe,
  0x66, 0x6c, 0x97, 0xbe, 0x42, 0x18, 0xaf, 0xbd, 0xcc, 0xf6, 0x88, 0xbe,
  0x32, 0xe5, 0x3a, 0xbd, 0x04, 0xd6, 0x63, 0x3e, 0x30, 0x83, 0x64, 0x3e,
  0x4a, 0x36, 0x61, 0x3e, 0x90, 0x58, 0xae, 0x3d, 0xdf, 0x6d, 0xc4, 0x3d,
  0xc9, 0x42, 0x2e, 0x3e, 0xd6, 0x2e, 0x9f, 0x3d, 0x82, 0x3b, 0x02, 0xbe,
  0x66, 0x9f, 0x17, 0xbd, 0x3d, 0x72, 0x7c, 0x3e, 0xc5, 0x1b, 0x4f, 0xbe,
  0xd9, 0x77, 0x85, 0xbe, 0x76, 0x78, 0xa6, 0x3d, 0x7e, 0x64, 0xe8, 0xbd,
  0x00, 0x90, 0x3a, 0xbe, 0xf0, 0x44, 0x26, 0xbe, 0x6e, 0x27, 0x2d, 0xbe,
  0x60, 0x36, 0x90, 0xbe, 0xbf, 0xa2, 0x1b, 0x3e, 0xc2, 0xad, 0xd2, 0xbd,
  0xe4, 0x43, 0x0c, 0xbe, 0x9f, 0xf6, 0xeb, 0x3d, 0xea, 0x54, 0x48, 0x3d,
  0x98, 0xdc, 0x3a, 0xbe, 0x83, 0x54, 0x83, 0xbe, 0x09, 0xdb, 0x66, 0xbe,
  0x1e, 0x24, 0x03, 0xbd, 0xa0, 0x24, 0x2d, 0x3a, 0xd5, 0x61, 0x2f, 0xbe,
  0x26, 0x08, 0x5b, 0xbe, 0x2a, 0x8e, 0x30, 0xbe, 0x7e, 0xad, 0xc3, 0x3d,
  0x6f, 0x26, 0x85, 0xbe, 0x3b, 0x04, 0x81, 0xbe, 0xee, 0xab, 0x87, 0x3e,
  0x89, 0x96, 0x17, 0x3e, 0x61, 0xc8, 0x2e, 0x3c, 0x1a, 0x46, 0x83, 0xbe,
  0xde, 0x3e, 0x36, 0x3e, 0xc1, 0x43, 0xfb, 0xbd, 0xf9, 0x4d, 0x48, 0x3e,
  0x64, 0xd5, 0xf5, 0xbd, 0x34, 0x9b, 0x84, 0x3e, 0x60, 0xab, 0x80, 0x3e,
  0x8d, 0x7b, 0x65, 0xbe, 0x1c, 0xed, 0xb0, 0x3d, 0xee, 0x6c, 0x0e, 0x3e,
  0xb3, 0x0d, 0x7a, 0xbe, 0xe4, 0xed, 0x52, 0xbe, 0xbb, 0x06, 0x6a, 0x3e,
  0x98, 0xfa, 0xf1, 0xbd, 0xb9, 0xaf, 0x58, 0x3e, 0x41, 0x79, 0xd2, 0x3b,
  0x86, 0xe0, 0x18, 0xbe, 0xa9, 0x2b, 0xab, 0xbd, 0xdc, 0xc1, 0xee, 0xbd,
  0x03, 0x4f, 0x7f, 0x3e, 0xd1, 0x37, 0x61, 0x3d, 0x32, 0xdc, 0x03, 0xbe,
  0x56, 0x5e, 0xd5, 0x3b, 0xe9, 0xce, 0xbd, 0xbc, 0x1d, 0x30, 0x29, 0xbe,
  0x34, 0x64, 0x4a, 0x3e, 0x74, 0x5e, 0x7a, 0xbe, 0xf1, 0xf4, 0xb9, 0x3d,
  0xc8, 0x40, 0x59, 0xbe, 0x1a, 0xe9, 0x0f, 0x3e, 0xac, 0x5c, 0xbe, 0xbd,
  0x31, 0x17, 0xfa, 0x3d, 0x3d, 0x87, 0x41, 0x3e, 0x8c, 0xf8, 0xaa, 0x3d,
  0xfd, 0x32, 0x89, 0xbb, 0xa8, 0x66, 0xa2, 0x3d, 0x09, 0xfd, 0x39, 0xbe,
  0xd9, 0xd2, 0x85, 0xbe, 0xd6, 0xa6, 0x34, 0xbe, 0xac, 0x6b, 0x63, 0xbc,
  0x74, 0x2f, 0x1d, 0xbe, 0xde, 0x16, 0x34, 0x3d, 0x96, 0xd0, 0x8d, 0x3d,
  0x0f, 0x7b, 0xfa, 0x3d, 0xa0, 0x82, 0x52, 0x3d, 0xb1, 0xd5, 0x51, 0xbe,
  0xdd, 0x4d, 0x3a, 0x3e, 0x8d, 0x18, 0x62, 0xbe, 0xc1, 0x49, 0x80, 0x3e,
  0xc5, 0x72, 0xa7, 0x3c, 0x1e, 0x30, 0x82, 0x3e, 0xe2, 0x97, 0xc2, 0x3d,
  0x2e, 0x63, 0xa4, 0xbd, 0xe6, 0x6c, 0x29, 0x3e, 0x1d, 0x63, 0x66, 0x3e,
  0x21, 0x9b, 0x86, 0x3e, 0xb0, 0xf4, 0x14, 0xbe, 0x3f, 0xdf, 0xd3, 0x3d,
  0x5d, 0x69, 0x22, 0x3c, 0x51, 0xa4, 0x9b, 0xbc, 0x2a, 0xbd, 0x5f, 0xbe,
  0x99, 0x2d, 0x80, 0xbe, 0x93, 0x66, 0xf7, 0xbc, 0x2d, 0xaf, 0x4b, 0xbe,
  0x78, 0xf4, 0x4a, 0xbe, 0xeb, 0xfb, 0x15, 0x3e, 0xbc, 0x29, 0xf9, 0x3d,
  0xdc, 0x3c, 0x99, 0x3d, 0x68, 0xe6, 0xd0, 0xbc, 0x87, 0xbc, 0xf7, 0x3d,
  0x17, 0xb3, 0x7c, 0x3c, 0xe1, 0xf3, 0x40, 0xbe, 0xd3, 0x6a, 0x2b, 0xbe,
  0x7f, 0x20, 0x6a, 0xbe, 0xb9, 0xb0, 0x67, 0xbd, 0xc8, 0x4c, 0xb4, 0xbd,
  0xfc, 0x9f, 0xcb, 0xbd, 0x8c, 0x2d, 0x3f, 0xbb, 0x6b, 0xe5, 0x7e, 0xbe,
  0x94, 0xb4, 0x2e, 0x3c, 0x4c, 0x37, 0x80, 0x3d, 0xb4, 0xdc, 0x6c, 0x3e,
  0xd8, 0x9d, 0x54, 0x3e, 0x49, 0x8d, 0x3e, 0xbe, 0x93, 0x9c, 0x8e, 0xbe,
  0xec, 0xf3, 0x74, 0x3e, 0xf7, 0x06, 0x65, 0x3e, 0x20, 0xfd, 0x8a, 0xbd,
  0x2b, 0x0d, 0x61, 0x3e, 0xa3, 0xd2, 0x6e, 0xbe, 0x28, 0x73, 0x5a, 0xbe,
  0x8c, 0x5b, 0x24, 0xbe, 0xf8, 0x5f, 0xc2, 0x3d, 0x3a, 0x42, 0xad, 0xbc,
  0xa4, 0xf2, 0xf4, 0x3c, 0x54, 0x09, 0x9f, 0xbd, 0x59, 0x99, 0x20, 0x3e,
  0x49, 0xa6, 0x3b, 0x3e, 0xbf, 0xf7, 0xf3, 0xbd, 0x78, 0x1f, 0x30, 0xbe,
  0x9e, 0x5f, 0xd7, 0xbd, 0x88, 0x35, 0x41, 0xbe, 0xe1, 0x3c, 0x15, 0xbe,
  0xb8, 0xe3, 0xd1, 0xbd, 0x32, 0x76, 0x07, 0xbe, 0x44, 0xc0, 0xc8, 0xbd,
  0xbb, 0xf1, 0x78, 0xbe, 0xb2, 0xc5, 0x5e, 0xbe, 0x22, 0xd0, 0x63, 0x3d,
  0xbc, 0x83, 0xb7, 0xbd, 0x68, 0x15, 0x5d, 0xbd, 0x7a, 0x95, 0x0f, 0x3e,
  0x5a, 0x2e, 0x58, 0xbe, 0xec, 0xb0, 0x9e, 0x3d, 0xa8, 0x1a, 0x29, 0x3e,
  0x80, 0x75, 0xd6, 0xbb, 0xa8, 0x6b, 0x59, 0xbe, 0x20, 0xc5, 0x81, 0xbc,
  0xe0, 0x33, 0x99, 0xbd, 0x24, 0xbf, 0x77, 0x3e, 0x82, 0xb9, 0xc5, 0x3d,
  0x8a, 0x82, 0x51, 0xbc, 0x6d, 0x8a, 0xd8, 0xbd, 0xed, 0x87, 0x4d, 0x3e,
  0xcf, 0x67, 0x1d, 0x3e, 0xd0, 0x97, 0x05, 0x3e, 0xa6, 0xa3, 0x4c, 0xbe,
  0x31, 0x5e, 0x7f, 0x3e, 0xf5, 0xb5, 0x83, 0x3e, 0x37, 0x12, 0xf8, 0xbd,
  0xcc, 0x97, 0x79, 0x3e, 0xf8, 0xfb, 0x56, 0x3d, 0xf5, 0x56, 0x6b, 0x3e,
  0xf6, 0x40, 0x7d, 0xbe, 0x11, 0x35, 0x65, 0xbd, 0x4d, 0x16, 0x72, 0x3e,
  0xef, 0xf8, 0x01, 0x3e, 0x4b, 0xbe, 0x46, 0xbe, 0x2a, 0x94, 0x8b, 0xbe,
  0x5b, 0x7f, 0x6a, 0x3d, 0xb9, 0x3d, 0xc6, 0x3c, 0xd4, 0xff, 0xaf, 0x3d,
  0x77, 0xe1, 0x7b, 0x3d, 0x00, 0x57, 0x02, 0xbe, 0x69, 0x1e, 0x04, 0xbe,
  0x06, 0x4e, 0x52, 0xbe, 0xb7, 0x5f, 0x17, 0x3e, 0xb6, 0x06, 0x4b, 0x3d,
  0x76, 0x04, 0xca, 0x3d, 0xb3, 0x69, 0xf6, 0xbc, 0x7e, 0x3e, 0x74, 0xbe,
  0x06, 0x41, 0x75, 0x3e, 0xdf, 0x67, 0x7e, 0x3e, 0x4e, 0x61, 0xf8, 0x3c,
  0xfe, 0x34, 0x54, 0xbe, 0xbb, 0x7c, 0x8a, 0x3d, 0x38, 0x76, 0x59, 0x3e,
  0x17, 0xf3, 0x08, 0x3d, 0xc6, 0x56, 0xfd, 0x3d, 0x82, 0x9a, 0x39, 0xbe,
  0x38, 0xe0, 0x79, 0x3d, 0x45, 0x92, 0x54, 0x3e, 0xe9, 0xab, 0x5e, 0xbe,
  0x8d, 0x78, 0x15, 0xbe, 0x3a, 0x70, 0x82, 0x3c, 0xec, 0x1a, 0xe0, 0x3d,
  0x7f, 0xe3, 0x97, 0xbd, 0x22, 0x24, 0x38, 0x3e, 0xf4, 0x45, 0x5b, 0xbd,
  0x8b, 0x70, 0x19, 0x3d, 0x65, 0xde, 0x39, 0xbd, 0x18, 0x11, 0xf9, 0x3d,
  0xab, 0xd8, 0x56, 0xbc, 0x02, 0x7e, 0x22, 0xbe, 0x61, 0xe1, 0xf4, 0xbd,
  0x74, 0x31, 0x0a, 0x3e, 0xd7, 0x8d, 0x8d, 0xbe, 0x8c, 0xde, 0x43, 0xbe,
  0xb4, 0x1d, 0x85, 0xbe, 0x93, 0xd7, 0x83, 0x3d, 0x5f, 0x58, 0x6e, 0x3c,
  0xdc, 0xfd, 0x1b, 0x3e, 0x5a, 0xcd, 0xba, 0x3d, 0xbe, 0xf3, 0x25, 0x3e,
  0xe3, 0xfa, 0xc4, 0xbd, 0x07, 0x93, 0xbc, 0xbd, 0x77, 0xf1, 0x81, 0xbd,
  0xe9, 0x09, 0x91, 0xbc, 0x4e, 0x1b, 0x43, 0x3e, 0x07, 0x71, 0xa6, 0xbd,
  0xb1, 0xe4, 0xa8, 0xbd, 0x61, 0xd6, 0x80, 0x3e, 0x9d, 0xb9, 0x26, 0xbd,
  0xbd, 0xf5, 0x7b, 0xbe, 0x26, 0xf1, 0x1a, 0x3e, 0x44, 0x27, 0x5e, 0xbe,
  0x4c, 0x2c, 0x17, 0xbe, 0xf7, 0x9c, 0xff, 0xbd, 0xcc, 0x0e, 0x80, 0x3e,
  0x6e, 0xd4, 0x46, 0x3e, 0x0c, 0x3e, 0xff, 0xbc, 0x32, 0x0e, 0x83, 0xbe,
  0xb0, 0x5e, 0xf8, 0xbd, 0x83, 0xc2, 0x79, 0xbe, 0x11, 0x34, 0xc1, 0x3d,
  0x40, 0xb0, 0x83, 0xbe, 0x7f, 0x93, 0x24, 0xbb, 0xbe, 0x69, 0x0d, 0xbe,
  0x17, 0x90, 0x15, 0xbe, 0xd0, 0x85, 0x63, 0xbe, 0xb7, 0xad, 0x80, 0x3e,
  0x28, 0xe4, 0xe4, 0xbd, 0xd8, 0x83, 0x99, 0x3d, 0x39, 0xc2, 0x85, 0x3d,
  0xc0, 0x8b, 0x7b, 0xbe, 0xf7, 0x11, 0x2b, 0xbe, 0x2d, 0x35, 0xff, 0x3d,
  0x7d, 0x95, 0x25, 0x3e, 0x70, 0x9b, 0x39, 0xbd, 0x9f, 0x9a, 0xce, 0x3c,
  0x63, 0xc4, 0x19, 0xbe, 0x24, 0x5d, 0x02, 0x3e, 0xea, 0x65, 0x0d, 0xbe,
  0xe4, 0x45, 0x35, 0xbe, 0xa4, 0x1f, 0x3b, 0xbc, 0x4c, 0x36, 0x03, 0xbe,
  0xc7, 0xe5, 0x56, 0x3e, 0xd0, 0xe6, 0xa9, 0x3d, 0xcb, 0xa3, 0x7d, 0x3d,
  0x61, 0x36, 0x3b, 0xbe, 0x63, 0x05, 0xc2, 0xbd, 0x42, 0x48, 0x44, 0xbd,
  0x61, 0xb2, 0xa1, 0x3d, 0x64, 0x75, 0x2f, 0xbe, 0xf5, 0xca, 0x37, 0xbe,
  0x13, 0x39, 0x2f, 0x3e, 0xe4, 0x75, 0x94, 0x3d, 0x9c, 0xab, 0x82, 0xbe,
  0x7e, 0x48, 0x19, 0xbb, 0x53, 0xa4, 0xe7, 0x3c, 0x38, 0x89, 0x56, 0xbe,
  0xd8, 0xdd, 0x2f, 0xbe, 0xf9, 0xdb, 0x5e, 0x3e, 0x4b, 0xea, 0xfa, 0x3d,
  0xe4, 0x7f, 0x8f, 0xbd, 0x8b, 0x5e, 0x87, 0x3e, 0x4e, 0xd4, 0x27, 0x3d,
  0xdf, 0xfe, 0x66, 0xbe, 0x2d, 0x29, 0x66, 0xbe, 0xc0, 0xfa, 0x8d, 0x3b,
  0xc0, 0xe4, 0x29, 0xbe, 0x40, 0x8e, 0xc9, 0x3b, 0x48, 0x59, 0x86, 0x3e,
  0x77, 0x66, 0x64, 0xbe, 0x5c, 0x77, 0xc2, 0x3d, 0x78, 0x09, 0xc2, 0x3d,
  0x24, 0x16, 0x2b, 0xbe, 0xea, 0xde, 0xf4, 0xbd, 0xec, 0x5a, 0xde, 0xbd,
  0x80, 0x14, 0x07, 0x3e, 0xe0, 0xb8, 0xbb, 0xbc, 0x7f, 0x17, 0x7a, 0xbe,
  0xf0, 0x0b, 0x8b, 0x3d, 0x6d, 0x96, 0x3e, 0xbe, 0x77, 0x91, 0x03, 0xbe,
  0x20, 0xc5, 0x62, 0x3c, 0xd0, 0xa9, 0x98, 0x3c, 0x09, 0xf2, 0x84, 0xbe,
  0xec, 0xb7, 0xc6, 0xbd, 0x94, 0x90, 0x84, 0x3d, 0x46, 0x45, 0x1b, 0xbe,
  0xc6, 0x52, 0x7e, 0xbe, 0xf4, 0x24, 0x17, 0x3e, 0xc9, 0x67, 0x16, 0xbe,
  0xa4, 0xf2, 0xef, 0x3d, 0x5a, 0xe0, 0x03, 0x3e, 0x7e, 0x8c, 0xbd, 0xbd,
  0x0c, 0x90, 0x88, 0x3e, 0xee, 0x3f, 0x1b, 0xbe, 0xc0, 0xd1, 0x2c, 0x3c,
  0x78, 0xc3, 0x1f, 0xbd, 0xac, 0x22, 0xa0, 0x3d, 0x92, 0x95, 0x27, 0xbe,
  0x5c, 0x5c, 0x9b, 0x3d, 0xa8, 0x95, 0x5b, 0xbe, 0x64, 0x7c, 0x42, 0xbe,
  0xc4, 0xb6, 0x04, 0x3e, 0x9c, 0xf2, 0x8a, 0x3e, 0xfd, 0x21, 0x5d, 0xbe,
  0xa4, 0x51, 0xe3, 0xbd, 0x90, 0xd2, 0x46, 0x3d, 0x4a, 0xc3, 0x16, 0x3e,
  0xa6, 0x6b, 0x88, 0x3e, 0xe8, 0x7f, 0x2f, 0xbd, 0xde, 0xae, 0x25, 0xbe,
  0xe0, 0x26, 0x71, 0x3e, 0x38, 0x11, 0x34, 0xbd, 0xb0, 0x00, 0x88, 0x3c,
  0xd9, 0xd9, 0x14, 0xbe, 0x98, 0xc9, 0x56, 0x3e, 0x80, 0x83, 0xd5, 0x3b,
  0x99, 0x9e, 0x0f, 0xbe, 0x72, 0xcb, 0x24, 0x3e, 0x45, 0x4e, 0x3b, 0xbe,
  0x74, 0xdf, 0x24, 0xbe, 0x68, 0x0b, 0x13, 0x3d, 0x40, 0x17, 0x7b, 0x3e,
  0x1c, 0x00, 0xeb, 0x3d, 0x60, 0xe5, 0x15, 0xbd, 0x52, 0xb7, 0x1b, 0xbe,
  0x8c, 0x13, 0x45, 0xbd, 0xdd, 0x74, 0x84, 0xbe, 0x88, 0x62, 0x05, 0x3e,
  0x6a, 0x46, 0x22, 0xbe, 0x43, 0xf9, 0x2c, 0x3e, 0x2e, 0x92, 0xfd, 0x3c,
  0xf9, 0x2b, 0x56, 0xbd, 0x1b, 0x85, 0x0d, 0xbc, 0x34, 0xee, 0x63, 0xbc,
  0xc7, 0xcc, 0x45, 0xbe, 0x52, 0xa1, 0xf3, 0xbc, 0xfa, 0x4d, 0x8b, 0xbd,
  0xa0, 0xe4, 0x42, 0xbe, 0xd1, 0x3b, 0x12, 0x3e, 0xb1, 0xc3, 0x35, 0x3e,
  0xb8, 0xa1, 0x81, 0x3e, 0x13, 0xd4, 0x17, 0x3e, 0xf7, 0x76, 0xae, 0x3c,
  0xfd, 0x94, 0x49, 0x3e, 0xa3, 0x06, 0x8c, 0xbe, 0xa1, 0x19, 0xf4, 0xbd,
  0x47, 0x50, 0x62, 0x3e, 0x96, 0x46, 0xd5, 0xbd, 0xf2, 0xe3, 0x5d, 0x3e,
  0xa3, 0x14, 0xb1, 0x3d, 0xb9, 0xf1, 0x77, 0x3e, 0xf4, 0x49, 0x27, 0x3e,
  0x98, 0xf0, 0x01, 0xbe, 0x85, 0xff, 0x2c, 0xbe, 0xe8, 0x35, 0x13, 0xbe,
  0xfe, 0xef, 0x80, 0xbd, 0xf4, 0xf3, 0x78, 0xbe, 0xf8, 0xcc, 0x62, 0x3e,
  0x60, 0xdc, 0x2b, 0xbd, 0xf6, 0x3a, 0x04, 0xbc, 0x67, 0x36, 0x82, 0xbe,
  0x07, 0x3b, 0xd7, 0x3c, 0x48, 0xca, 0x0e, 0x3e, 0x74, 0xce, 0xbf, 0x3b,
  0x82, 0xd6, 0x94, 0xbd, 0x45, 0x98, 0x00, 0xbe, 0x2e, 0x49, 0x1b, 0x3c,
  0x0d, 0xef, 0x5b, 0x3e, 0xed, 0x80, 0x33, 0xbe, 0xaf, 0x40, 0x49, 0xbe,
  0x62, 0x0d, 0xab, 0x3d, 0x71, 0xf9, 0x05, 0x3e, 0x48, 0x8d, 0x47, 0xbe,
  0x69, 0x59, 0xc6, 0xbc, 0x6b, 0x6c, 0x4c, 0x3e, 0x63, 0x80, 0xe9, 0xbd,
  0x2b, 0x67, 0x63, 0x3e, 0x05, 0xee, 0xc2, 0xbd, 0x9c, 0x63, 0xcc, 0xbd,
  0x22, 0xaa, 0x77, 0x3d, 0xf9, 0x26, 0xa6, 0xbd, 0xb2, 0x4b, 0x7b, 0x3e,
  0xbf, 0x03, 0x38, 0x3e, 0x4a, 0x1f, 0x36, 0x3d, 0x10, 0x22, 0x13, 0x3e,
  0x78, 0x1f, 0x40, 0x3e, 0xa5, 0x86, 0x72, 0xbe, 0x13, 0xe4, 0xf9, 0xbd,
  0x86, 0x67, 0x83, 0xbe, 0x26, 0xc0, 0x09, 0xbe, 0xc0, 0x42, 0x2f, 0xbd,
  0x3d, 0xf0, 0x33, 0x3e, 0x2f, 0xfb, 0x34, 0x3e, 0xf3, 0x2b, 0x4e, 0xbe,
  0xde, 0x54, 0x7b, 0x3e, 0xb5, 0x7a, 0x86, 0x3d, 0x01, 0x26, 0x1e, 0xbe,
  0xfd, 0x01, 0x2c, 0xbe, 0x2c, 0x9a, 0x56, 0xbc, 0x2a, 0x09, 0x50, 0xbe,
  0x8d, 0x7c, 0x33, 0x3e, 0xc5, 0x9d, 0xae, 0xbd, 0x03, 0xfe, 0x83, 0xbb,
  0x92, 0x46, 0x19, 0xbd, 0xc2, 0x8c, 0x1f, 0x3e, 0x65, 0x43, 0x83, 0x3e,
  0x22, 0x59, 0x97, 0xbd, 0x68, 0xce, 0x52, 0x3d, 0xfc, 0xd2, 0x2c, 0x3e,
  0x19, 0xd4, 0x21, 0x3e, 0x72, 0xbf, 0xcc, 0xbc, 0x49, 0x04, 0xcf, 0xbd,
  0xc8, 0xcc, 0xd2, 0xbd, 0x9b, 0x0b, 0x21, 0x3e, 0xbd, 0x31, 0x85, 0x3e,
  0xf2, 0xef, 0x93, 0x3c, 0x36, 0xdc, 0xff, 0xbd, 0xb1, 0x1e, 0x2b, 0x3e,
  0xc5, 0xc0, 0x23, 0xbe, 0x9e, 0x7f, 0xe7, 0xbd, 0x06, 0x60, 0x2f, 0xbe,
  0xbc, 0x29, 0x86, 0x3d, 0x99, 0x24, 0xf4, 0x3d, 0x8f, 0x76, 0xd8, 0x3d,
  0x52, 0x7a, 0xe2, 0x3d, 0x1e, 0x3b, 0x7a, 0xbe, 0xa0, 0x0e, 0x66, 0x3e,
  0x15, 0x32, 0x6d, 0xbe, 0x0a, 0xaa, 0xf4, 0xbd, 0x05, 0x4e, 0x61, 0xbe,
  0x23, 0x5a, 0x1f, 0xbe, 0xab, 0x0a, 0x1a, 0x3e, 0x83, 0x8b, 0xf2, 0x3d,
  0x45, 0xd6, 0x94, 0xbd, 0xc2, 0x8a, 0x8b, 0xbe, 0xeb, 0xa2, 0xc3, 0xbd,
  0x16, 0x0d, 0x33, 0xbe, 0x58, 0x93, 0x4d, 0xbe, 0x33, 0x13, 0x30, 0x3e,
  0xae, 0x67, 0xc8, 0x3d, 0x24, 0xb4, 0x8b, 0xbe, 0xc5, 0x16, 0x5a, 0xbe,
  0x54, 0x6e, 0xb7, 0xbd, 0xc0, 0x6b, 0xef, 0xbd, 0xcb, 0xc6, 0x3c, 0xbe,
  0x14, 0x96, 0xa1, 0xbd, 0x8e, 0x6d, 0x88, 0x3d, 0x9d, 0x46, 0x65, 0xbe,
  0xa1, 0x1e, 0x3d, 0xbe, 0x73, 0x2e, 0xc1, 0x3d, 0x4b, 0xa5, 0x5d, 0x3e,
  0xd4, 0xdb, 0x50, 0xbe, 0xa7, 0x01, 0x43, 0x3d, 0x0d, 0xa9, 0x1c, 0x3e,
  0x83, 0x97, 0xa1, 0x3d, 0x1b, 0x95, 0x34, 0x3e, 0xec, 0x4c, 0x9c, 0x3e,
  0x69, 0x7a, 0xee, 0x3d, 0x6e, 0x3e, 0x1a, 0x3e, 0xcb, 0x0e, 0xee, 0x3d,
  0xcb, 0x46, 0xa8, 0x3d, 0x2b, 0xb1, 0x36, 0x3e, 0x2d, 0xf4, 0xd1, 0xbc,
  0x68, 0x09, 0x12, 0xbe, 0xeb, 0x04, 0x12, 0x3e, 0x47, 0x94, 0x31, 0xbe,
  0xc0, 0xdf, 0x4d, 0xbe, 0x04, 0x3e, 0xce, 0x3d, 0x34, 0x7a, 0x6d, 0xbe,
  0x42, 0xc3, 0x47, 0xbe, 0x30, 0xca, 0x19, 0xbe, 0x24, 0x33, 0x9d, 0xbe,
  0x1f, 0x91, 0xb0, 0x3c, 0xc3, 0xa7, 0xf8, 0x3d, 0x40, 0xd0, 0x1a, 0x3e,
  0x70, 0xdc, 0x30, 0x3e, 0x5f, 0x08, 0x9d, 0x3d, 0xaf, 0xd3, 0x70, 0x3d,
  0x47, 0x7e, 0xc7, 0xbd, 0x98, 0xb7, 0x85, 0x3d, 0x30, 0xc1, 0xab, 0xbe,
  0x1a, 0xc7, 0x84, 0x3d, 0x12, 0x4d, 0xc2, 0x3d, 0x0f, 0x3c, 0x72, 0xbe,
  0x5f, 0x49, 0x2e, 0x3d, 0x4e, 0x6b, 0xec, 0xbc, 0xe7, 0x19, 0x4a, 0x3e,
  0x3d, 0xbc, 0x22, 0xbe, 0xb4, 0x18, 0x60, 0xbc, 0x9d, 0xf0, 0x92, 0x3e,
  0xad, 0xa1, 0x9d, 0xbd, 0x31, 0xdd, 0x58, 0xbe, 0x08, 0xb2, 0x49, 0xbe,
  0xe2, 0x5f, 0x67, 0xbe, 0x2a, 0xf9, 0x8d, 0x3e, 0x4b, 0x6f, 0x91, 0x3e,
  0x94, 0xf1, 0x2e, 0xbe, 0xd1, 0x4c, 0x10, 0xbe, 0xe0, 0xa0, 0x8f, 0x3c,
  0x3d, 0xe5, 0x57, 0xbe, 0x14, 0xbf, 0xcb, 0xbc, 0xc9, 0x40, 0x4b, 0x3e,
  0x65, 0xdf, 0x9d, 0xbe, 0xc6, 0x8c, 0x19, 0xbe, 0x67, 0x58, 0x0f, 0xbe,
  0x53, 0x97, 0x71, 0xbe, 0x72, 0x22, 0x15, 0xbe, 0x04, 0x2d, 0xfa, 0x3d,
  0x1f, 0x8d, 0x6f, 0xbd, 0x0c, 0xda, 0x08, 0x3e, 0x55, 0x23, 0x81, 0x3d,
  0x90, 0x40, 0xe1, 0xbd, 0x0d, 0x03, 0x53, 0x3e, 0x6c, 0x78, 0x76, 0x3e,
  0x5c, 0xf7, 0x3e, 0x3c, 0xfb, 0x60, 0x46, 0x3e, 0xec, 0xef, 0x7c, 0xbe,
  0x9a, 0x94, 0x9c, 0x3d, 0xac, 0x36, 0xfe, 0xbd, 0xfb, 0xf9, 0x2e, 0x3e,
  0x6b, 0x95, 0x51, 0x3c, 0x90, 0xe0, 0xa6, 0x3d, 0x58, 0x85, 0x4a, 0x3e,
  0x81, 0x03, 0x88, 0x3c, 0xdd, 0x02, 0x82, 0x3e, 0x03, 0x4b, 0xda, 0x3d,
  0xd2, 0x47, 0x65, 0xbe, 0xc6, 0x75, 0x6e, 0x3e, 0x4f, 0x17, 0x61, 0x3d,
  0xda, 0x7d, 0x72, 0x3e, 0xa7, 0x4c, 0xa9, 0x3d, 0xad, 0xa4, 0x52, 0x3e,
  0x18, 0x68, 0x0c, 0x3d, 0x52, 0x5c, 0x58, 0x3e, 0x85, 0x6e, 0x4c, 0x3e,
  0x3e, 0x7b, 0x83, 0x3e, 0x28, 0xb0, 0x80, 0x3e, 0x2d, 0x19, 0x4c, 0x3e,
  0x43, 0x91, 0x0a, 0x3e, 0x78, 0xf5, 0x7b, 0xbe, 0xe4, 0x94, 0xef, 0x3d,
  0x86, 0xd9, 0x0d, 0x3c, 0x21, 0x2d, 0xbc, 0xbd, 0x46, 0x5d, 0xf5, 0xbd,
  0x32, 0xe0, 0xae, 0x3d, 0xc7, 0xab, 0x6a, 0x3e, 0x64, 0x8c, 0xb1, 0xbd,
  0xee, 0xb3, 0xc8, 0x3c, 0xe3, 0x01, 0x79, 0x3c, 0xc6, 0x3e, 0x6b, 0xbe,
  0x04, 0xc4, 0x50, 0xbe, 0xc9, 0x1a, 0x1d, 0xbe, 0x56, 0x75, 0x50, 0x3e,
  0x31, 0x56, 0x00, 0x3d, 0x59, 0x49, 0xca, 0xbd, 0xb4, 0x0e, 0x53, 0x3e,
  0xc8, 0x40, 0xdd, 0xbd, 0x65, 0x74, 0xea, 0x3c, 0x9e, 0x16, 0x3c, 0xbe,
  0x96, 0x1e, 0x5b, 0x3e, 0xbc, 0xfe, 0x0a, 0x3e, 0x6e, 0x2c, 0x94, 0x3d,
  0x03, 0xef, 0x13, 0x3e, 0xa2, 0xca, 0x1f, 0xbe, 0x7e, 0x86, 0x0a, 0xbe,
  0xd4, 0xa4, 0x21, 0x3e, 0xac, 0x6a, 0x81, 0x3e, 0xaa, 0xd7, 0x62, 0xbe,
  0xcc, 0x67, 0x8e, 0x3c, 0xfb, 0x0a, 0xa6, 0x3c, 0x15, 0xee, 0x8a, 0x3d,
  0x0f, 0x0e, 0x8a, 0xbe, 0xe4, 0x14, 0x4e, 0xbe, 0x3e, 0x37, 0x8f, 0xbd,
  0x23, 0xaf, 0xfd, 0x3d, 0x80, 0xcd, 0xa9, 0xbd, 0x7c, 0x6b, 0x02, 0xbe,
  0xaf, 0x0c, 0x50, 0xbe, 0x67, 0x8a, 0x06, 0x3e, 0xca, 0x35, 0xc4, 0xbd,
  0x23, 0x2f, 0xde, 0xbd, 0xc5, 0x95, 0x51, 0xbe, 0x8a, 0x7f, 0x7b, 0x3c,
  0xca, 0x3d, 0x7c, 0xbe, 0x79, 0x9d, 0xa7, 0xbd, 0x27, 0x26, 0x62, 0x3e,
  0x9a, 0x3a, 0x93, 0xbe, 0x88, 0xb2, 0xe0, 0xbd, 0x9a, 0x20, 0x88, 0xbd,
  0x4c, 0x73, 0x37, 0x3d, 0xc8, 0xfe, 0x35, 0xbe, 0xc1, 0x8e, 0xe0, 0xbc,
  0x0c, 0x0a, 0x80, 0xbd, 0x14, 0x1f, 0x7f, 0xbd, 0x46, 0xb0, 0x1d, 0x3c,
  0xd8, 0xcf, 0xb1, 0xbd, 0x73, 0xe2, 0x71, 0x3e, 0xc8, 0x12, 0xeb, 0x3d,
  0x79, 0x1e, 0x31, 0xbe, 0xbf, 0xe2, 0x71, 0x3e, 0xae, 0x57, 0x71, 0xbe,
  0x33, 0xb6, 0x55, 0xbe, 0x82, 0x6d, 0x86, 0x3c, 0x88, 0x8a, 0xb0, 0xbd,
  0x0e, 0x7a, 0x8b, 0xbc, 0x85, 0x3e, 0x23, 0xbc, 0xf9, 0x1b, 0x31, 0xbe,
  0x12, 0xa4, 0x8f, 0xbe, 0x04, 0x83, 0x4d, 0x3d, 0x64, 0xcd, 0x8b, 0xbe,
  0x18, 0x6a, 0xbb, 0xbd, 0x25, 0x14, 0x4a, 0x3e, 0xe7, 0x1d, 0x38, 0xbe,
  0x54, 0x69, 0x49, 0x3e, 0xbc, 0xf9, 0x6c, 0x3e, 0x74, 0x54, 0x05, 0x3e,
  0xb0, 0x83, 0x77, 0x3d, 0x2c, 0x96, 0xa0, 0xbd, 0xd6, 0xa7, 0x85, 0xbe,
  0x47, 0x78, 0x08, 0xbe, 0xdf, 0x14, 0x27, 0xbe, 0x74, 0x43, 0x95, 0xbd,
  0xaa, 0x93, 0x60, 0x3e, 0x27, 0x14, 0x82, 0xbe, 0xc2, 0x61, 0x96, 0xbd,
  0x16, 0xb8, 0x84, 0xbe, 0xb7, 0x3f, 0xcc, 0xbd, 0x10, 0x50, 0xcf, 0xbd,
  0x5e, 0xa2, 0x7b, 0x3d, 0xce, 0xfe, 0x45, 0x3e, 0x12, 0x01, 0x80, 0xbe,
  0xa7, 0x9e, 0xb5, 0xbd, 0xf1, 0xf5, 0x4b, 0x3e, 0x2c, 0x99, 0x1a, 0xbe,
  0x31, 0x2b, 0x5d, 0x3e, 0x64, 0xb4, 0x8e, 0xbe, 0xcc, 0xed, 0x27, 0x3e,
  0x0d, 0x4f, 0xce, 0x3d, 0x41, 0x6d, 0x33, 0xbd, 0x22, 0x23, 0x77, 0xbe,
  0x58, 0x52, 0x7d, 0x3e, 0x88, 0xef, 0x89, 0xbd, 0x1d, 0xb0, 0x1d, 0x3e,
  0x2b, 0x8d, 0x4a, 0x3e, 0xe6, 0x81, 0x81, 0x3e, 0x9d, 0x15, 0x01, 0xbd,
  0x24, 0x88, 0x00, 0x3e, 0xb7, 0xd5, 0x2d, 0xbe, 0x00, 0x00, 0x0e, 0x00,
  0x14, 0x00, 0x04, 0x00, 0x00, 0x00, 0x08, 0x00, 0x0c, 0x00, 0x10, 0x00,
  0x0e, 0x00, 0x00, 0x00, 0x10, 0x00, 0x00, 0x00, 0x02, 0x00, 0x00, 0x00,
  0x14, 0x00, 0x00, 0x00, 0x30, 0x00, 0x00, 0x00, 0x02, 0x00, 0x00, 0x00,
  0x10, 0x00, 0x00, 0x00, 0x40, 0x00, 0x00, 0x00, 0x1b, 0x00, 0x00, 0x00,
  0x73, 0x65, 0x71, 0x75, 0x65, 0x6e, 0x74, 0x69, 0x61, 0x6c, 0x5f, 0x33,
  0x2f, 0x64, 0x65, 0x6e, 0x73, 0x65, 0x5f, 0x37, 0x2f, 0x4d, 0x61, 0x74,
  0x4d, 0x75, 0x6c, 0x00, 0x90, 0xff, 0xff, 0xff, 0x14, 0x00, 0x18, 0x00,
  0x04, 0x00, 0x00, 0x00, 0x08, 0x00, 0x0c, 0x00, 0x10, 0x00, 0x00, 0x00,
  0x00, 0x00, 0x14, 0x00, 0x14, 0x00, 0x00, 0x00, 0x14, 0x00, 0x00, 0x00,
  0x01, 0x00, 0x00, 0x00, 0x18, 0x00, 0x00, 0x00, 0x44, 0x00, 0x00, 0x00,
  0x34, 0x00, 0x00, 0x00, 0x02, 0x00, 0x00, 0x00, 0x01, 0x00, 0x00, 0x00,
  0x40, 0x00, 0x00, 0x00, 0x1f, 0x00, 0x00, 0x00, 0x73, 0x65, 0x72, 0x76,
  0x69, 0x6e, 0x67, 0x5f, 0x64, 0x65, 0x66, 0x61, 0x75, 0x6c, 0x74, 0x5f,
  0x64, 0x65, 0x6e, 0x73, 0x65, 0x5f, 0x37, 0x5f, 0x69, 0x6e, 0x70, 0x75,
  0x74, 0x3a, 0x30, 0x00, 0x02, 0x00, 0x00, 0x00, 0xff, 0xff, 0xff, 0xff,
  0x40, 0x00, 0x00, 0x00, 0xfc, 0xff, 0xff, 0xff, 0x04, 0x00, 0x04, 0x00,
  0x04, 0x00, 0x00, 0x00
};
unsigned int _content_drive_MyDrive_DPL_g_model_tflite_len = 6964;
