unsigned char _content_drive_MyDrive_DPL_g_model_tflite[] = {
  0x20, 0x00, 0x00, 0x00, 0x54, 0x46, 0x4c, 0x33, 0x00, 0x00, 0x00, 0x00,
  0x14, 0x00, 0x20, 0x00, 0x04, 0x00, 0x08, 0x00, 0x0c, 0x00, 0x10, 0x00,
  0x14, 0x00, 0x00, 0x00, 0x18, 0x00, 0x1c, 0x00, 0x14, 0x00, 0x00, 0x00,
  0x03, 0x00, 0x00, 0x00, 0x18, 0x00, 0x00, 0x00, 0x24, 0x00, 0x00, 0x00,
  0x38, 0x01, 0x00, 0x00, 0x24, 0x00, 0x00, 0x00, 0xe0, 0x00, 0x00, 0x00,
  0x58, 0x00, 0x00, 0x00, 0x03, 0x00, 0x00, 0x00, 0x38, 0x05, 0x00, 0x00,
  0x44, 0x04, 0x00, 0x00, 0xe8, 0x01, 0x00, 0x00, 0x01, 0x00, 0x00, 0x00,
  0x38, 0x01, 0x00, 0x00, 0x0e, 0x00, 0x00, 0x00, 0x50, 0x0e, 0x00, 0x00,
  0x4c, 0x0e, 0x00, 0x00, 0x48, 0x09, 0x00, 0x00, 0x98, 0x08, 0x00, 0x00,
  0x24, 0x07, 0x00, 0x00, 0x80, 0x06, 0x00, 0x00, 0xfc, 0x05, 0x00, 0x00,
  0x94, 0x05, 0x00, 0x00, 0x30, 0x0e, 0x00, 0x00, 0x2c, 0x0e, 0x00, 0x00,
  0x28, 0x0e, 0x00, 0x00, 0x24, 0x0e, 0x00, 0x00, 0x20, 0x0e, 0x00, 0x00,
  0xbc, 0x00, 0x00, 0x00, 0x01, 0x00, 0x00, 0x00, 0x10, 0x00, 0x00, 0x00,
  0x00, 0x00, 0x0a, 0x00, 0x10, 0x00, 0x0c, 0x00, 0x08, 0x00, 0x04, 0x00,
  0x0a, 0x00, 0x00, 0x00, 0x0c, 0x00, 0x00, 0x00, 0x1c, 0x00, 0x00, 0x00,
  0x20, 0x00, 0x00, 0x00, 0x0f, 0x00, 0x00, 0x00, 0x73, 0x65, 0x72, 0x76,
  0x69, 0x6e, 0x67, 0x5f, 0x64, 0x65, 0x66, 0x61, 0x75, 0x6c, 0x74, 0x00,
  0x01, 0x00, 0x00, 0x00, 0x14, 0x00, 0x00, 0x00, 0x01, 0x00, 0x00, 0x00,
  0x24, 0x00, 0x00, 0x00, 0x08, 0x00, 0x0c, 0x00, 0x08, 0x00, 0x04, 0x00,
  0x08, 0x00, 0x00, 0x00, 0x0b, 0x00, 0x00, 0x00, 0x04, 0x00, 0x00, 0x00,
  0x07, 0x00, 0x00, 0x00, 0x64, 0x65, 0x6e, 0x73, 0x65, 0x5f, 0x34, 0x00,
  0x56, 0xf7, 0xff, 0xff, 0x04, 0x00, 0x00, 0x00, 0x0d, 0x00, 0x00, 0x00,
  0x64, 0x65, 0x6e, 0x73, 0x65, 0x5f, 0x32, 0x5f, 0x69, 0x6e, 0x70, 0x75,
  0x74, 0x00, 0x00, 0x00, 0x01, 0x00, 0x00, 0x00, 0x0c, 0x00, 0x00, 0x00,
  0x08, 0x00, 0x0c, 0x00, 0x04, 0x00, 0x08, 0x00, 0x08, 0x00, 0x00, 0x00,
  0x08, 0x00, 0x00, 0x00, 0x0d, 0x00, 0x00, 0x00, 0x13, 0x00, 0x00, 0x00,
  0x6d, 0x69, 0x6e, 0x5f, 0x72, 0x75, 0x6e, 0x74, 0x69, 0x6d, 0x65, 0x5f,
  0x76, 0x65, 0x72, 0x73, 0x69, 0x6f, 0x6e, 0x00, 0xa6, 0xf7, 0xff, 0xff,
  0x04, 0x00, 0x00, 0x00, 0x10, 0x00, 0x00, 0x00, 0x31, 0x2e, 0x31, 0x34,
  0x2e, 0x30, 0x00, 0x00, 0x00, 0x00, 0x00, 0x00, 0x00, 0x00, 0x00, 0x00,
  0x0f, 0x00, 0x00, 0x00, 0x4d, 0x4c, 0x49, 0x52, 0x20, 0x43, 0x6f, 0x6e,
  0x76, 0x65, 0x72, 0x74, 0x65, 0x64, 0x2e, 0x00, 0x00, 0x00, 0x0e, 0x00,
  0x18, 0x00, 0x04, 0x00, 0x08, 0x00, 0x0c, 0x00, 0x10, 0x00, 0x14, 0x00,
  0x0e, 0x00, 0x00, 0x00, 0x14, 0x00, 0x00, 0x00, 0x44, 0x00, 0x00, 0x00,
  0x48, 0x00, 0x00, 0x00, 0x4c, 0x00, 0x00, 0x00, 0x60, 0x00, 0x00, 0x00,
  0x0c, 0x00, 0x00, 0x00, 0xa8, 0x0c, 0x00, 0x00, 0x1c, 0x0c, 0x00, 0x00,
  0x9c, 0x07, 0x00, 0x00, 0xe8, 0x06, 0x00, 0x00, 0x84, 0x05, 0x00, 0x00,
  0xd0, 0x04, 0x00, 0x00, 0x5c, 0x04, 0x00, 0x00, 0xdc, 0x03, 0x00, 0x00,
  0xd4, 0x02, 0x00, 0x00, 0xc0, 0x01, 0x00, 0x00, 0xfc, 0x00, 0x00, 0x00,
  0x70, 0x00, 0x00, 0x00, 0x01, 0x00, 0x00, 0x00, 0x00, 0x00, 0x00, 0x00,
  0x01, 0x00, 0x00, 0x00, 0x0b, 0x00, 0x00, 0x00, 0x05, 0x00, 0x00, 0x00,
  0x68, 0x03, 0x00, 0x00, 0x5c, 0x02, 0x00, 0x00, 0x60, 0x01, 0x00, 0x00,
  0xa0, 0x00, 0x00, 0x00, 0x18, 0x00, 0x00, 0x00, 0x04, 0x00, 0x00, 0x00,
  0x6d, 0x61, 0x69, 0x6e, 0x00, 0x00, 0x0a, 0x00, 0x10, 0x00, 0x04, 0x00,
  0x08, 0x00, 0x0c, 0x00, 0x0a, 0x00, 0x00, 0x00, 0x02, 0x00, 0x00, 0x00,
  0x10, 0x00, 0x00, 0x00, 0x04, 0x00, 0x00, 0x00, 0x01, 0x00, 0x00, 0x00,
  0x0b, 0x00, 0x00, 0x00, 0x01, 0x00, 0x00, 0x00, 0x0a, 0x00, 0x00, 0x00,
  0xc4, 0xfc, 0xff, 0xff, 0x06, 0x00, 0x00, 0x00, 0x00, 0x00, 0x00, 0x06,
  0x02, 0x00, 0x00, 0x00, 0x08, 0xf4, 0xff, 0xff, 0x14, 0x00, 0x00, 0x00,
  0x0c, 0x00, 0x00, 0x00, 0x18, 0x00, 0x00, 0x00, 0x40, 0x00, 0x00, 0x00,
  0x30, 0x00, 0x00, 0x00, 0x02, 0x00, 0x00, 0x00, 0x01, 0x00, 0x00, 0x00,
  0x01, 0x00, 0x00, 0x00, 0x19, 0x00, 0x00, 0x00, 0x53, 0x74, 0x61, 0x74,
  0x65, 0x66, 0x75, 0x6c, 0x50, 0x61, 0x72, 0x74, 0x69, 0x74, 0x69, 0x6f,
  0x6e, 0x65, 0x64, 0x43, 0x61, 0x6c, 0x6c, 0x3a, 0x30, 0x00, 0x00, 0x00,
  0x02, 0x00, 0x00, 0x00, 0xff, 0xff, 0xff, 0xff, 0x01, 0x00, 0x00, 0x00,
  0xec, 0xf3, 0xff, 0xff, 0x52, 0xff, 0xff, 0xff, 0x00, 0x00, 0x00, 0x08,
  0x01, 0x00, 0x00, 0x00, 0x18, 0x00, 0x00, 0x00, 0x0c, 0x00, 0x00, 0x00,
  0x04, 0x00, 0x00, 0x00, 0x08, 0xf4, 0xff, 0xff, 0x01, 0x00, 0x00, 0x00,
  0x0a, 0x00, 0x00, 0x00, 0x03, 0x00, 0x00, 0x00, 0x09, 0x00, 0x00, 0x00,
  0x05, 0x00, 0x00, 0x00, 0x06, 0x00, 0x00, 0x00, 0x40, 0xfd, 0xff, 0xff,
  0x00, 0x00, 0x00, 0x09, 0x14, 0x00, 0x00, 0x00, 0x0b, 0x00, 0x00, 0x00,
  0x18, 0x00, 0x00, 0x00, 0x40, 0x00, 0x00, 0x00, 0x30, 0x00, 0x00, 0x00,
  0x02, 0x00, 0x00, 0x00, 0x01, 0x00, 0x00, 0x00, 0x01, 0x00, 0x00, 0x00,
  0x1a, 0x00, 0x00, 0x00, 0x53, 0x74, 0x61, 0x74, 0x65, 0x66, 0x75, 0x6c,
  0x50, 0x61, 0x72, 0x74, 0x69, 0x74, 0x69, 0x6f, 0x6e, 0x65, 0x64, 0x43,
  0x61, 0x6c, 0x6c, 0x3a, 0x30, 0x31, 0x00, 0x00, 0x02, 0x00, 0x00, 0x00,
  0xff, 0xff, 0xff, 0xff, 0x01, 0x00, 0x00, 0x00, 0x14, 0xf5, 0xff, 0xff,
  0x08, 0x00, 0x00, 0x00, 0x0c, 0x00, 0x00, 0x00, 0x01, 0x00, 0x00, 0x00,
  0x47, 0xa7, 0x6e, 0x3e, 0x01, 0x00, 0x00, 0x00, 0x4e, 0x00, 0x00, 0x00,
  0x00, 0x00, 0x00, 0x00, 0x00, 0x00, 0x00, 0x00, 0x00, 0x00, 0x0e, 0x00,
  0x18, 0x00, 0x08, 0x00, 0x0c, 0x00, 0x10, 0x00, 0x07, 0x00, 0x14, 0x00,
  0x0e, 0x00, 0x00, 0x00, 0x00, 0x00, 0x00, 0x08, 0x01, 0x00, 0x00, 0x00,
  0x1c, 0x00, 0x00, 0x00, 0x10, 0x00, 0x00, 0x00, 0x04, 0x00, 0x00, 0x00,
  0x06, 0xff, 0xff, 0xff, 0x00, 0x00, 0x00, 0x01, 0x01, 0x00, 0x00, 0x00,
  0x09, 0x00, 0x00, 0x00, 0x03, 0x00, 0x00, 0x00, 0x08, 0x00, 0x00, 0x00,
  0x03, 0x00, 0x00, 0x00, 0x04, 0x00, 0x00, 0x00, 0x00, 0xfe, 0xff, 0xff,
  0x00, 0x00, 0x00, 0x09, 0x14, 0x00, 0x00, 0x00, 0x0a, 0x00, 0x00, 0x00,
  0x18, 0x00, 0x00, 0x00, 0x78, 0x00, 0x00, 0x00, 0x68, 0x00, 0x00, 0x00,
  0x02, 0x00, 0x00, 0x00, 0x01, 0x00, 0x00, 0x00, 0x10, 0x00, 0x00, 0x00,
  0x52, 0x00, 0x00, 0x00, 0x73, 0x65, 0x71, 0x75, 0x65, 0x6e, 0x74, 0x69,
  0x61, 0x6c, 0x5f, 0x31, 0x2f, 0x64, 0x65, 0x6e, 0x73, 0x65, 0x5f, 0x33,
  0x2f, 0x4d, 0x61, 0x74, 0x4d, 0x75, 0x6c, 0x3b, 0x73, 0x65, 0x71, 0x75,
  0x65, 0x6e, 0x74, 0x69, 0x61, 0x6c, 0x5f, 0x31, 0x2f, 0x64, 0x65, 0x6e,
  0x73, 0x65, 0x5f, 0x33, 0x2f, 0x52, 0x65, 0x6c, 0x75, 0x3b, 0x73, 0x65,
  0x71, 0x75, 0x65, 0x6e, 0x74, 0x69, 0x61, 0x6c, 0x5f, 0x31, 0x2f, 0x64,
  0x65, 0x6e, 0x73, 0x65, 0x5f, 0x33, 0x2f, 0x42, 0x69, 0x61, 0x73, 0x41,
  0x64, 0x64, 0x00, 0x00, 0x02, 0x00, 0x00, 0x00, 0xff, 0xff, 0xff, 0xff,
  0x10, 0x00, 0x00, 0x00, 0x0c, 0xf6, 0xff, 0xff, 0x08, 0x00, 0x00, 0x00,
  0x0c, 0x00, 0x00, 0x00, 0x01, 0x00, 0x00, 0x00, 0xd4, 0xde, 0x05, 0x3f,
  0x01, 0x00, 0x00, 0x00, 0x80, 0xff, 0xff, 0xff, 0xff, 0xff, 0xff, 0xff,
  0x00, 0x00, 0x00, 0x00, 0x00, 0x00, 0x0e, 0x00, 0x1a, 0x00, 0x08, 0x00,
  0x0c, 0x00, 0x10, 0x00, 0x07, 0x00, 0x14, 0x00, 0x0e, 0x00, 0x00, 0x00,
  0x00, 0x00, 0x00, 0x08, 0x01, 0x00, 0x00, 0x00, 0x24, 0x00, 0x00, 0x00,
  0x18, 0x00, 0x00, 0x00, 0x0c, 0x00, 0x00, 0x00, 0x00, 0x00, 0x06, 0x00,
  0x08, 0x00, 0x07, 0x00, 0x06, 0x00, 0x00, 0x00, 0x00, 0x00, 0x00, 0x01,
  0x01, 0x00, 0x00, 0x00, 0x08, 0x00, 0x00, 0x00, 0x03, 0x00, 0x00, 0x00,
  0x07, 0x00, 0x00, 0x00, 0x01, 0x00, 0x00, 0x00, 0x02, 0x00, 0x00, 0x00,
  0x1c, 0xff, 0xff, 0xff, 0x09, 0x00, 0x00, 0x00, 0x00, 0x00, 0x00, 0x09,
  0x04, 0x00, 0x00, 0x00, 0x10, 0xff, 0xff, 0xff, 0x00, 0x00, 0x00, 0x09,
  0x14, 0x00, 0x00, 0x00, 0x09, 0x00, 0x00, 0x00, 0x18, 0x00, 0x00, 0x00,
  0x78, 0x00, 0x00, 0x00, 0x68, 0x00, 0x00, 0x00, 0x02, 0x00, 0x00, 0x00,
  0x01, 0x00, 0x00, 0x00, 0x10, 0x00, 0x00, 0x00, 0x52, 0x00, 0x00, 0x00,
  0x73, 0x65, 0x71, 0x75, 0x65, 0x6e, 0x74, 0x69, 0x61, 0x6c, 0x5f, 0x31,
  0x2f, 0x64, 0x65, 0x6e, 0x73, 0x65, 0x5f, 0x32, 0x2f, 0x4d, 0x61, 0x74,
  0x4d, 0x75, 0x6c, 0x3b, 0x73, 0x65, 0x71, 0x75, 0x65, 0x6e, 0x74, 0x69,
  0x61, 0x6c, 0x5f, 0x31, 0x2f, 0x64, 0x65, 0x6e, 0x73, 0x65, 0x5f, 0x32,
  0x2f, 0x52, 0x65, 0x6c, 0x75, 0x3b, 0x73, 0x65, 0x71, 0x75, 0x65, 0x6e,
  0x74, 0x69, 0x61, 0x6c, 0x5f, 0x31, 0x2f, 0x64, 0x65, 0x6e, 0x73, 0x65,
  0x5f, 0x32, 0x2f, 0x42, 0x69, 0x61, 0x73, 0x41, 0x64, 0x64, 0x00, 0x00,
  0x02, 0x00, 0x00, 0x00, 0xff, 0xff, 0xff, 0xff, 0x10, 0x00, 0x00, 0x00,
  0x1c, 0xf7, 0xff, 0xff, 0x08, 0x00, 0x00, 0x00, 0x0c, 0x00, 0x00, 0x00,
  0x01, 0x00, 0x00, 0x00, 0xf8, 0xb4, 0x64, 0x3f, 0x01, 0x00, 0x00, 0x00,
  0x80, 0xff, 0xff, 0xff, 0xff, 0xff, 0xff, 0xff, 0x00, 0x00, 0x0a, 0x00,
  0x0c, 0x00, 0x00, 0x00, 0x04, 0x00, 0x08, 0x00, 0x0a, 0x00, 0x00, 0x00,
  0x10, 0x00, 0x00, 0x00, 0x04, 0x00, 0x00, 0x00, 0x01, 0x00, 0x00, 0x00,
  0x07, 0x00, 0x00, 0x00, 0x01, 0x00, 0x00, 0x00, 0x00, 0x00, 0x00, 0x00,
  0x0c, 0x00, 0x10, 0x00, 0x0b, 0x00, 0x00, 0x00, 0x0c, 0x00, 0x04, 0x00,
  0x0c, 0x00, 0x00, 0x00, 0x72, 0x00, 0x00, 0x00, 0x00, 0x00, 0x00, 0x72,
  0x01, 0x00, 0x00, 0x00, 0x14, 0x00, 0x1c, 0x00, 0x08, 0x00, 0x07, 0x00,
  0x0c, 0x00, 0x10, 0x00, 0x14, 0x00, 0x00, 0x00, 0x00, 0x00, 0x18, 0x00,
  0x14, 0x00, 0x00, 0x00, 0x00, 0x00, 0x00, 0x09, 0x14, 0x00, 0x00, 0x00,
  0x08, 0x00, 0x00, 0x00, 0x18, 0x00, 0x00, 0x00, 0x34, 0x00, 0x00, 0x00,
  0x24, 0x00, 0x00, 0x00, 0x02, 0x00, 0x00, 0x00, 0x01, 0x00, 0x00, 0x00,
  0x40, 0x00, 0x00, 0x00, 0x0c, 0x00, 0x00, 0x00, 0x74, 0x66, 0x6c, 0x2e,
  0x71, 0x75, 0x61, 0x6e, 0x74, 0x69, 0x7a, 0x65, 0x00, 0x00, 0x00, 0x00,
  0x02, 0x00, 0x00, 0x00, 0xff, 0xff, 0xff, 0xff, 0x40, 0x00, 0x00, 0x00,
  0xdc, 0xf7, 0xff, 0xff, 0x08, 0x00, 0x00, 0x00, 0x0c, 0x00, 0x00, 0x00,
  0x01, 0x00, 0x00, 0x00, 0x1a, 0x43, 0x9f, 0x3f, 0x01, 0x00, 0x00, 0x00,
  0x80, 0xff, 0xff, 0xff, 0xff, 0xff, 0xff, 0xff, 0x00, 0x00, 0x00, 0x00,
  0x66, 0xfc, 0xff, 0xff, 0x04, 0x00, 0x00, 0x00, 0x04, 0x00, 0x00, 0x00,
  0x08, 0x01, 0x00, 0x00, 0x62, 0xf8, 0xff, 0xff, 0x00, 0x00, 0x00, 0x02,
  0x10, 0x00, 0x00, 0x00, 0x07, 0x00, 0x00, 0x00, 0x10, 0x00, 0x00, 0x00,
  0x20, 0x00, 0x00, 0x00, 0x01, 0x00, 0x00, 0x00, 0x01, 0x00, 0x00, 0x00,
  0x0c, 0x00, 0x00, 0x00, 0x64, 0x65, 0x6e, 0x73, 0x65, 0x5f, 0x34, 0x2f,
  0x62, 0x69, 0x61, 0x73, 0x00, 0x00, 0x00, 0x00, 0x44, 0xf8, 0xff, 0xff,
  0x08, 0x00, 0x00, 0x00, 0x0c, 0x00, 0x00, 0x00, 0x01, 0x00, 0x00, 0x00,
  0x03, 0xa9, 0xe8, 0x3a, 0x01, 0x00, 0x00, 0x00, 0x00, 0x00, 0x00, 0x00,
  0x00, 0x00, 0x00, 0x00, 0xca, 0xfc, 0xff, 0xff, 0x04, 0x00, 0x00, 0x00,
  0x10, 0x00, 0x00, 0x00, 0x52, 0x99, 0x81, 0xb3, 0x2a, 0x3f, 0xd2, 0x19,
  0x98, 0xb8, 0x4f, 0x92, 0xb5, 0x26, 0x30, 0xa1, 0xd2, 0xf8, 0xff, 0xff,
  0x00, 0x00, 0x00, 0x09, 0x10, 0x00, 0x00, 0x00, 0x06, 0x00, 0x00, 0x00,
  0x14, 0x00, 0x00, 0x00, 0x30, 0x00, 0x00, 0x00, 0x02, 0x00, 0x00, 0x00,
  0x01, 0x00, 0x00, 0x00, 0x10, 0x00, 0x00, 0x00, 0x1b, 0x00, 0x00, 0x00,
  0x73, 0x65, 0x71, 0x75, 0x65, 0x6e, 0x74, 0x69, 0x61, 0x6c, 0x5f, 0x31,
  0x2f, 0x64, 0x65, 0x6e, 0x73, 0x65, 0x5f, 0x34, 0x2f, 0x4d, 0x61, 0x74,
  0x4d, 0x75, 0x6c, 0x00, 0xc4, 0xf8, 0xff, 0xff, 0x08, 0x00, 0x00, 0x00,
  0x0c, 0x00, 0x00, 0x00, 0x01, 0x00, 0x00, 0x00, 0x2c, 0x75, 0x5e, 0x3b,
  0x01, 0x00, 0x00, 0x00, 0x00, 0x00, 0x00, 0x00, 0x00, 0x00, 0x00, 0x00,
  0x4a, 0xfd, 0xff, 0xff, 0x04, 0x00, 0x00, 0x00, 0x40, 0x00, 0x00, 0x00,
  0x00, 0x00, 0x00, 0x00, 0xf7, 0xff, 0xff, 0xff, 0xf4, 0xff, 0xff, 0xff,
  0xea, 0x00, 0x00, 0x00, 0x50, 0x00, 0x00, 0x00, 0x36, 0x00, 0x00, 0x00,
  0x24, 0x00, 0x00, 0x00, 0x77, 0x00, 0x00, 0x00, 0xe4, 0xff, 0xff, 0xff,
  0xe6, 0xff, 0xff, 0xff, 0x90, 0xff, 0xff, 0xff, 0x04, 0x00, 0x00, 0x00,
  0x96, 0xff, 0xff, 0xff, 0x1b, 0x00, 0x00, 0x00, 0x46, 0x00, 0x00, 0x00,
  0xc6, 0xff, 0xff, 0xff, 0x82, 0xf9, 0xff, 0xff, 0x00, 0x00, 0x00, 0x02,
  0x10, 0x00, 0x00, 0x00, 0x05, 0x00, 0x00, 0x00, 0x10, 0x00, 0x00, 0x00,
  0x20, 0x00, 0x00, 0x00, 0x01, 0x00, 0x00, 0x00, 0x10, 0x00, 0x00, 0x00,
  0x0c, 0x00, 0x00, 0x00, 0x64, 0x65, 0x6e, 0x73, 0x65, 0x5f, 0x33, 0x2f,
  0x62, 0x69, 0x61, 0x73, 0x00, 0x00, 0x00, 0x00, 0x64, 0xf9, 0xff, 0xff,
  0x08, 0x00, 0x00, 0x00, 0x0c, 0x00, 0x00, 0x00, 0x01, 0x00, 0x00, 0x00,
  0x62, 0x76, 0xed, 0x3b, 0x01, 0x00, 0x00, 0x00, 0x00, 0x00, 0x00, 0x00,
  0x00, 0x00, 0x00, 0x00, 0xea, 0xfd, 0xff, 0xff, 0x04, 0x00, 0x00, 0x00,
  0x00, 0x01, 0x00, 0x00, 0xe4, 0xfa, 0xff, 0xe1, 0x07, 0x23, 0xe5, 0xe1,
  0xd7, 0xf4, 0x04, 0x02, 0x00, 0xf6, 0xf4, 0xef, 0xe4, 0xdf, 0x26, 0x1b,
  0xec, 0xcb, 0xd1, 0xd0, 0xe3, 0xcc, 0x26, 0x01, 0x16, 0xce, 0xc9, 0xf5,
  0x00, 0x11, 0x13, 0xce, 0xf1, 0xfe, 0xdc, 0x05, 0xce, 0xe1, 0xe6, 0x24,
  0x23, 0xdf, 0xd7, 0x01, 0x0a, 0xe3, 0xde, 0xdc, 0x02, 0xda, 0xf8, 0x10,
  0x08, 0xf5, 0x39, 0xeb, 0xe8, 0x13, 0xdf, 0xff, 0x03, 0xf5, 0xca, 0xd9,
  0xde, 0xdf, 0x23, 0x4a, 0x26, 0xd6, 0x15, 0x18, 0xd4, 0x2a, 0x0d, 0xdc,
  0x1c, 0xdf, 0xe7, 0x28, 0x1f, 0x02, 0x27, 0xdc, 0xcd, 0x19, 0x03, 0x21,
  0xf9, 0xef, 0x28, 0x2c, 0xeb, 0x14, 0xd3, 0x2c, 0x00, 0x31, 0xd5, 0x37,
  0xe9, 0xfa, 0x05, 0x21, 0x0b, 0xf7, 0xee, 0xdb, 0x04, 0x1b, 0xfb, 0xd1,
  0xfa, 0xfb, 0x1b, 0xc7, 0xf8, 0xdf, 0x81, 0xf7, 0x2d, 0xda, 0x33, 0xdd,
  0xe0, 0xdd, 0x09, 0xe2, 0xe7, 0xfe, 0x12, 0x0b, 0xd3, 0x10, 0x0b, 0x1c,
  0x24, 0xd2, 0xfa, 0xee, 0x37, 0xe3, 0xcf, 0x08, 0x27, 0x04, 0x24, 0xc3,
  0xdf, 0x22, 0x06, 0x04, 0x16, 0x00, 0x13, 0xde, 0x09, 0xcd, 0x27, 0xff,
  0x2d, 0x0a, 0xdf, 0xeb, 0x01, 0xf9, 0x24, 0x0d, 0x08, 0xed, 0xfb, 0x2d,
  0x08, 0xfd, 0xd9, 0xe8, 0x19, 0x00, 0x0e, 0xfe, 0xe2, 0x10, 0x01, 0x34,
  0xfe, 0xe9, 0x27, 0x1e, 0xd1, 0x0e, 0xed, 0xeb, 0x04, 0x31, 0x29, 0xfe,
  0xfb, 0x0e, 0xf5, 0x1b, 0xdb, 0x0e, 0x08, 0xff, 0x0f, 0xe8, 0x32, 0xf7,
  0xbf, 0x29, 0xf9, 0xb4, 0xe7, 0xf7, 0x10, 0x0e, 0x1d, 0xd3, 0x1d, 0x03,
  0xfe, 0xff, 0xf3, 0x28, 0x31, 0xf5, 0xcd, 0x1c, 0x2e, 0x1f, 0xcb, 0x25,
  0x11, 0xd7, 0x18, 0x19, 0xef, 0xd1, 0xd3, 0x1c, 0x13, 0xe2, 0xeb, 0x14,
  0x2b, 0xf5, 0x03, 0xde, 0xfe, 0xee, 0x11, 0xf5, 0xe2, 0xfa, 0xff, 0xff,
  0x00, 0x00, 0x00, 0x09, 0x10, 0x00, 0x00, 0x00, 0x04, 0x00, 0x00, 0x00,
  0x14, 0x00, 0x00, 0x00, 0x30, 0x00, 0x00, 0x00, 0x02, 0x00, 0x00, 0x00,
  0x10, 0x00, 0x00, 0x00, 0x10, 0x00, 0x00, 0x00, 0x1b, 0x00, 0x00, 0x00,
  0x73, 0x65, 0x71, 0x75, 0x65, 0x6e, 0x74, 0x69, 0x61, 0x6c, 0x5f, 0x31,
  0x2f, 0x64, 0x65, 0x6e, 0x73, 0x65, 0x5f, 0x33, 0x2f, 0x4d, 0x61, 0x74,
  0x4d, 0x75, 0x6c, 0x00, 0xd4, 0xfa, 0xff, 0xff, 0x08, 0x00, 0x00, 0x00,
  0x0c, 0x00, 0x00, 0x00, 0x01, 0x00, 0x00, 0x00, 0x73, 0xe6, 0x04, 0x3c,
  0x01, 0x00, 0x00, 0x00, 0x00, 0x00, 0x00, 0x00, 0x00, 0x00, 0x00, 0x00,
  0x5a, 0xff, 0xff, 0xff, 0x04, 0x00, 0x00, 0x00, 0x40, 0x00, 0x00, 0x00,
  0x45, 0x00, 0x00, 0x00, 0x90, 0x00, 0x00, 0x00, 0xfd, 0xff, 0xff, 0xff,
  0x67, 0xff, 0xff, 0xff, 0x95, 0x00, 0x00, 0x00, 0xf7, 0xff, 0xff, 0xff,
  0x0f, 0x00, 0x00, 0x00, 0x21, 0xff, 0xff, 0xff, 0xb5, 0xff, 0xff, 0xff,
  0x92, 0xff, 0xff, 0xff, 0x14, 0x00, 0x00, 0x00, 0x02, 0x00, 0x00, 0x00,
  0x1f, 0x00, 0x00, 0x00, 0x9d, 0xff, 0xff, 0xff, 0x60, 0x00, 0x00, 0x00,
  0xe2, 0xff, 0xff, 0xff, 0x92, 0xfb, 0xff, 0xff, 0x00, 0x00, 0x00, 0x02,
  0x10, 0x00, 0x00, 0x00, 0x03, 0x00, 0x00, 0x00, 0x10, 0x00, 0x00, 0x00,
  0x20, 0x00, 0x00, 0x00, 0x01, 0x00, 0x00, 0x00, 0x10, 0x00, 0x00, 0x00,
  0x0c, 0x00, 0x00, 0x00, 0x64, 0x65, 0x6e, 0x73, 0x65, 0x5f, 0x32, 0x2f,
  0x62, 0x69, 0x61, 0x73, 0x00, 0x00, 0x00, 0x00, 0x74, 0xfb, 0xff, 0xff,
  0x08, 0x00, 0x00, 0x00, 0x0c, 0x00, 0x00, 0x00, 0x01, 0x00, 0x00, 0x00,
  0x94, 0xed, 0xeb, 0x3b, 0x01, 0x00, 0x00, 0x00, 0x00, 0x00, 0x00, 0x00,
  0x00, 0x00, 0x00, 0x00, 0x00, 0x00, 0x00, 0x00, 0x00, 0x00, 0x06, 0x00,
  0x08, 0x00, 0x04, 0x00, 0x06, 0x00, 0x00, 0x00, 0x04, 0x00, 0x00, 0x00,
  0x00, 0x04, 0x00, 0x00, 0x1e, 0xed, 0x26, 0xf1, 0xf4, 0x19, 0xe4, 0x1c,
  0x29, 0x18, 0x1b, 0xf0, 0x01, 0xec, 0xe2, 0xf8, 0x0f, 0xf5, 0xea, 0x0c,
  0xe5, 0xe6, 0xf7, 0xe7, 0xfb, 0x1b, 0xf8, 0xe7, 0x0e, 0xe7, 0x2c, 0xf9,
  0x2b, 0xfa, 0x20, 0xf4, 0xde, 0xd9, 0xd0, 0xe7, 0xec, 0x1a, 0xe0, 0xdd,
  0x1a, 0x26, 0x1b, 0xe7, 0xdf, 0xca, 0xdb, 0xd0, 0x18, 0x25, 0x16, 0x09,
  0xdc, 0xeb, 0xf9, 0x0c, 0xcd, 0x0a, 0xe4, 0xdb, 0xe5, 0xe3, 0xff, 0xf2,
  0xf9, 0xf4, 0x0b, 0x00, 0xf7, 0xd8, 0xfa, 0xf6, 0xfe, 0xfb, 0x00, 0x1e,
  0xdf, 0x0a, 0x04, 0xfa, 0xed, 0x1e, 0x24, 0x17, 0x00, 0x0e, 0x19, 0xfb,
  0x0b, 0x10, 0x13, 0xed, 0x0a, 0xd1, 0x21, 0x45, 0x35, 0x22, 0x11, 0x07,
  0x29, 0x18, 0xfb, 0x0e, 0x25, 0xd5, 0x0e, 0xf0, 0x1f, 0x1d, 0x1e, 0xcc,
  0x13, 0xe7, 0xbd, 0xdd, 0x81, 0x2b, 0xc8, 0xdb, 0xc3, 0xe1, 0xb4, 0xc4,
  0xfe, 0xf6, 0xf3, 0xf2, 0xf8, 0x19, 0x13, 0xe1, 0xea, 0xdb, 0x07, 0x17,
  0x10, 0xd8, 0xd4, 0xfd, 0xdc, 0xf6, 0xd0, 0x27, 0x03, 0xd4, 0xd9, 0xe5,
  0x05, 0xf6, 0xe9, 0x2c, 0xdb, 0x0c, 0x05, 0xd1, 0xff, 0xf3, 0x1e, 0xd3,
  0x05, 0xdb, 0xf4, 0xe3, 0xf3, 0xd6, 0xef, 0xf5, 0xed, 0xe9, 0xe3, 0x11,
  0xe4, 0xe1, 0x03, 0x0a, 0x03, 0x23, 0x11, 0x09, 0x27, 0x02, 0x1a, 0xe2,
  0xeb, 0xf6, 0xf1, 0x0e, 0xf2, 0xe5, 0x14, 0x13, 0x19, 0x07, 0x12, 0xe8,
  0x16, 0x14, 0x15, 0x27, 0x1d, 0x23, 0x10, 0xf6, 0x24, 0x0e, 0xd4, 0xf8,
  0xfb, 0xd2, 0x01, 0xe4, 0x13, 0xeb, 0x19, 0xda, 0xe0, 0x0c, 0x0a, 0x04,
  0x09, 0xf7, 0xfb, 0x0a, 0xf9, 0xe4, 0x0c, 0xf5, 0xd0, 0x16, 0xf9, 0xe6,
  0x31, 0xff, 0xf8, 0xdc, 0x04, 0xee, 0x1a, 0x15, 0xf3, 0x2a, 0xd4, 0xe3,
  0x1c, 0x1f, 0x01, 0xef, 0x09, 0x22, 0xda, 0xfe, 0x14, 0x17, 0x0b, 0xff,
  0xfc, 0xd5, 0xf4, 0xfe, 0xeb, 0x27, 0x29, 0xdb, 0xe7, 0xe7, 0x1e, 0x2a,
  0xd9, 0xb9, 0xe7, 0x07, 0xe3, 0xce, 0xec, 0x02, 0xf8, 0x23, 0x2b, 0xe1,
  0xdc, 0x16, 0x12, 0x29, 0xec, 0x0e, 0x15, 0xdc, 0xfb, 0xf0, 0xf6, 0xec,
  0x19, 0x15, 0x06, 0xee, 0xec, 0xd3, 0xf9, 0x0a, 0xf9, 0xf1, 0x07, 0xd3,
  0xe3, 0xf7, 0x19, 0xe9, 0x15, 0x0e, 0xc9, 0xe7, 0x30, 0xfd, 0x14, 0xd7,
  0xcb, 0x11, 0xf1, 0xfe, 0xd0, 0x25, 0x06, 0xef, 0x21, 0x1c, 0xfd, 0xeb,
  0xfd, 0xeb, 0x09, 0x19, 0xf9, 0x05, 0x24, 0x19, 0xf1, 0x05, 0xf4, 0xf9,
  0xd7, 0x0c, 0xed, 0xef, 0xef, 0xd2, 0xcb, 0xeb, 0xcd, 0xf9, 0x24, 0x26,
  0x26, 0x0b, 0x07, 0x0c, 0xfe, 0xdc, 0xe7, 0x12, 0xc6, 0xc0, 0xfb, 0xe5,
  0xd9, 0xd7, 0xd5, 0xbe, 0x0e, 0xdd, 0xd7, 0x0a, 0xff, 0xd2, 0xcc, 0xd1,
  0xed, 0xf7, 0xd6, 0xd2, 0xd6, 0x18, 0xda, 0xd8, 0x2c, 0x13, 0x07, 0xdb,
  0x18, 0xf1, 0x1f, 0xf1, 0x2c, 0x22, 0xd4, 0x09, 0x09, 0xcf, 0xd0, 0x1b,
  0xe4, 0x1d, 0xf9, 0xe0, 0xef, 0xdf, 0x1e, 0x12, 0xd4, 0xef, 0xef, 0xd3,
  0x1f, 0xd8, 0x19, 0xd9, 0x18, 0x05, 0x1c, 0x29, 0x14, 0xf6, 0xff, 0xdc,
  0xd3, 0xec, 0x04, 0xe1, 0x07, 0x0b, 0x11, 0x07, 0xdc, 0x20, 0xda, 0x2d,
  0x09, 0x31, 0x1d, 0x02, 0x2b, 0x2e, 0x34, 0xeb, 0x1b, 0x09, 0x06, 0xfd,
  0xce, 0x15, 0xde, 0xec, 0x25, 0x17, 0x1e, 0xf3, 0xea, 0xd9, 0xe1, 0x1c,
  0xed, 0xe6, 0xff, 0xfa, 0xea, 0xae, 0xd5, 0xda, 0x17, 0x23, 0xe1, 0xeb,
  0x2e, 0x48, 0x1e, 0x33, 0x02, 0x07, 0xef, 0xd6, 0xd3, 0xd8, 0xe7, 0xfc,
  0x10, 0x0e, 0xe7, 0xfc, 0xc8, 0xf4, 0xfe, 0x14, 0xfe, 0xb7, 0xf3, 0x09,
  0xc5, 0xfa, 0x32, 0xfd, 0x0d, 0x42, 0x18, 0xbe, 0xcc, 0xe0, 0x12, 0xc6,
  0x09, 0xfa, 0x19, 0x0b, 0x1f, 0xda, 0x23, 0x13, 0xde, 0x2a, 0xec, 0x15,
  0xd2, 0xf0, 0x29, 0x1e, 0xe1, 0xe8, 0x0a, 0xfc, 0xfa, 0x21, 0xfb, 0xf3,
  0xe6, 0x12, 0x14, 0x01, 0x03, 0xd7, 0x14, 0x09, 0x02, 0xca, 0x01, 0x25,
  0x06, 0x0a, 0xf1, 0x19, 0x27, 0xe7, 0xea, 0x07, 0x03, 0xe6, 0x24, 0xfc,
  0x06, 0xf0, 0x28, 0x11, 0xf8, 0xf5, 0x1c, 0xe4, 0xe5, 0xcf, 0x10, 0x0c,
  0x23, 0x17, 0x29, 0xf4, 0x0b, 0xed, 0xdb, 0x32, 0xef, 0xf9, 0x27, 0x04,
  0xf7, 0x07, 0xea, 0xfa, 0xe0, 0x31, 0x18, 0xfc, 0xed, 0xe5, 0xd3, 0x0a,
  0xc1, 0x08, 0xfb, 0xff, 0xf6, 0x2c, 0xf7, 0x0b, 0xff, 0xd0, 0xf8, 0x24,
  0x22, 0xfd, 0xf5, 0xe4, 0x1e, 0xf9, 0xde, 0xfd, 0xf4, 0x2d, 0x19, 0x18,
  0xf4, 0x02, 0xfb, 0x05, 0xe1, 0xf0, 0x14, 0x1d, 0xf0, 0x0d, 0x11, 0xd5,
  0xf0, 0x12, 0x19, 0xf4, 0x44, 0x16, 0xe5, 0xf4, 0xf3, 0xea, 0xf2, 0x30,
  0x10, 0x17, 0xf7, 0xe3, 0xe6, 0xeb, 0x14, 0x05, 0xf8, 0xf2, 0xf0, 0x08,
  0x3e, 0xf1, 0xef, 0x21, 0xed, 0xd6, 0xf6, 0x0e, 0xce, 0xf1, 0x09, 0x02,
  0x1d, 0xdd, 0xfb, 0x21, 0x1a, 0xdf, 0xff, 0xc0, 0xfc, 0x3e, 0x3d, 0xed,
  0xdf, 0xde, 0x2b, 0x25, 0xfc, 0xb3, 0x27, 0xef, 0x21, 0xe1, 0x1f, 0x06,
  0xee, 0xe1, 0xd4, 0xc8, 0x04, 0x4b, 0x3b, 0xfa, 0x19, 0x03, 0xc8, 0xcf,
  0xe0, 0x13, 0x02, 0xf3, 0xfd, 0x09, 0xe7, 0xf9, 0xf2, 0xe6, 0x16, 0x14,
  0x21, 0x0f, 0x01, 0x2a, 0xcd, 0xed, 0x28, 0xec, 0x20, 0x01, 0x23, 0x1f,
  0xd7, 0xd0, 0xe4, 0xf7, 0xd0, 0x18, 0xe9, 0xf8, 0xd8, 0x05, 0x18, 0x14,
  0x05, 0xf5, 0x04, 0x1e, 0xe4, 0xed, 0x13, 0x1a, 0xdb, 0xfe, 0x24, 0xed,
  0x22, 0xf0, 0xee, 0x06, 0xee, 0x2c, 0x23, 0x0c, 0x1a, 0x1e, 0xd8, 0xec,
  0xd4, 0xea, 0xf8, 0x21, 0x15, 0xe1, 0x34, 0x0d, 0xdd, 0xe6, 0xf8, 0xd5,
  0x0c, 0xe3, 0x00, 0xff, 0x15, 0x27, 0xee, 0x04, 0x1c, 0x15, 0x00, 0xf2,
  0xe9, 0x1d, 0x27, 0x08, 0xef, 0x15, 0xe6, 0xe5, 0xdd, 0x0f, 0x1f, 0x0e,
  0x0f, 0xd6, 0x29, 0xd9, 0xe9, 0xdc, 0xde, 0x1d, 0x08, 0xe1, 0xc8, 0xe0,
  0xd1, 0xcc, 0x15, 0x1a, 0xde, 0xe9, 0xfd, 0xf7, 0xee, 0xfa, 0x0c, 0xe2,
  0xe8, 0x1d, 0x27, 0xd8, 0x09, 0x14, 0x0c, 0x25, 0x27, 0x0c, 0x15, 0x07,
  0xfb, 0x15, 0xfd, 0xe8, 0x18, 0xe0, 0xe9, 0x10, 0xbf, 0xdd, 0xe7, 0xcc,
  0x05, 0x09, 0x05, 0x25, 0x1b, 0x1f, 0xfd, 0x0d, 0xc9, 0x12, 0x1b, 0xd7,
  0x16, 0x08, 0x32, 0xf8, 0x0c, 0x36, 0xe8, 0xf5, 0xd9, 0xdc, 0x3b, 0x2d,
  0xd1, 0xda, 0xe8, 0xc0, 0xff, 0x2a, 0xf2, 0xee, 0xf0, 0xcc, 0xe8, 0x1a,
  0x0c, 0x1c, 0x17, 0xf6, 0x27, 0x2d, 0x01, 0x2a, 0xc8, 0x03, 0xc8, 0xed,
  0xfb, 0xfe, 0x25, 0x01, 0x1a, 0x16, 0xe7, 0x13, 0xfa, 0x12, 0x01, 0x26,
  0x06, 0x1a, 0x1f, 0x11, 0x19, 0xfe, 0x12, 0xd4, 0x28, 0xff, 0xef, 0xdf,
  0xff, 0x22, 0xf2, 0x14, 0x00, 0xde, 0xe3, 0xe1, 0x1a, 0x01, 0xf2, 0x1b,
  0xf7, 0x1d, 0xe2, 0x18, 0x0d, 0x05, 0x11, 0xe6, 0xef, 0x1e, 0x19, 0xd5,
  0xfa, 0x24, 0x0e, 0xca, 0xcf, 0x07, 0x1a, 0xf5, 0x02, 0xf7, 0x37, 0x04,
  0xf2, 0xe3, 0x0f, 0xea, 0xd6, 0x30, 0xce, 0xea, 0xf0, 0x0b, 0xe6, 0xf6,
  0xef, 0xf1, 0x01, 0xf0, 0x27, 0x12, 0xdf, 0x24, 0xd5, 0xda, 0x02, 0xf1,
  0xfc, 0xfe, 0xe5, 0xd6, 0x14, 0xdd, 0xfe, 0x2d, 0xf3, 0x33, 0x37, 0x26,
  0x17, 0xfb, 0xdc, 0xf1, 0xe4, 0xf0, 0x23, 0xda, 0xf6, 0xd5, 0xef, 0xed,
  0x0b, 0x20, 0xda, 0xf5, 0x28, 0xec, 0x2c, 0xd2, 0x21, 0x0d, 0xf4, 0xd2,
  0x27, 0xee, 0x10, 0x18, 0x25, 0xf6, 0x0f, 0xd5, 0x00, 0x00, 0x0e, 0x00,
  0x18, 0x00, 0x08, 0x00, 0x07, 0x00, 0x0c, 0x00, 0x10, 0x00, 0x14, 0x00,
  0x0e, 0x00, 0x00, 0x00, 0x00, 0x00, 0x00, 0x09, 0x10, 0x00, 0x00, 0x00,
  0x02, 0x00, 0x00, 0x00, 0x14, 0x00, 0x00, 0x00, 0x3c, 0x00, 0x00, 0x00,
  0x02, 0x00, 0x00, 0x00, 0x10, 0x00, 0x00, 0x00, 0x40, 0x00, 0x00, 0x00,
  0x1b, 0x00, 0x00, 0x00, 0x73, 0x65, 0x71, 0x75, 0x65, 0x6e, 0x74, 0x69,
  0x61, 0x6c, 0x5f, 0x31, 0x2f, 0x64, 0x65, 0x6e, 0x73, 0x65, 0x5f, 0x32,
  0x2f, 0x4d, 0x61, 0x74, 0x4d, 0x75, 0x6c, 0x00, 0x0c, 0x00, 0x0c, 0x00,
  0x00, 0x00, 0x00, 0x00, 0x04, 0x00, 0x08, 0x00, 0x0c, 0x00, 0x00, 0x00,
  0x08, 0x00, 0x00, 0x00, 0x0c, 0x00, 0x00, 0x00, 0x01, 0x00, 0x00, 0x00,
  0xed, 0x9d, 0xbd, 0x3b, 0x01, 0x00, 0x00, 0x00, 0x00, 0x00, 0x00, 0x00,
  0x00, 0x00, 0x00, 0x00, 0x00, 0x00, 0x00, 0x00, 0x14, 0x00, 0x18, 0x00,
  0x04, 0x00, 0x00, 0x00, 0x08, 0x00, 0x0c, 0x00, 0x10, 0x00, 0x00, 0x00,
  0x00, 0x00, 0x14, 0x00, 0x14, 0x00, 0x00, 0x00, 0x14, 0x00, 0x00, 0x00,
  0x01, 0x00, 0x00, 0x00, 0x18, 0x00, 0x00, 0x00, 0x44, 0x00, 0x00, 0x00,
  0x34, 0x00, 0x00, 0x00, 0x02, 0x00, 0x00, 0x00, 0x01, 0x00, 0x00, 0x00,
  0x40, 0x00, 0x00, 0x00, 0x1f, 0x00, 0x00, 0x00, 0x73, 0x65, 0x72, 0x76,
  0x69, 0x6e, 0x67, 0x5f, 0x64, 0x65, 0x66, 0x61, 0x75, 0x6c, 0x74, 0x5f,
  0x64, 0x65, 0x6e, 0x73, 0x65, 0x5f, 0x32, 0x5f, 0x69, 0x6e, 0x70, 0x75,
  0x74, 0x3a, 0x30, 0x00, 0x02, 0x00, 0x00, 0x00, 0xff, 0xff, 0xff, 0xff,
  0x40, 0x00, 0x00, 0x00, 0xfc, 0xff, 0xff, 0xff, 0x04, 0x00, 0x04, 0x00,
  0x04, 0x00, 0x00, 0x00
};
unsigned int _content_drive_MyDrive_DPL_g_model_tflite_len = 3760;
